<pad>	0
<bos>	0
<eos>	0
<unk>	0
<0x00>	0
<0x01>	0
<0x02>	0
<0x03>	0
<0x04>	0
<0x05>	0
<0x06>	0
<0x07>	0
<0x08>	0
<0x09>	0
<0x0A>	0
<0x0B>	0
<0x0C>	0
<0x0D>	0
<0x0E>	0
<0x0F>	0
<0x10>	0
<0x11>	0
<0x12>	0
<0x13>	0
<0x14>	0
<0x15>	0
<0x16>	0
<0x17>	0
<0x18>	0
<0x19>	0
<0x1A>	0
<0x1B>	0
<0x1C>	0
<0x1D>	0
<0x1E>	0
<0x1F>	0
<0x20>	0
<0x21>	0
<0x22>	0
<0x23>	0
<0x24>	0
<0x25>	0
<0x26>	0
<0x27>	0
<0x28>	0
<0x29>	0
<0x2A>	0
<0x2B>	0
<0x2C>	0
<0x2D>	0
<0x2E>	0
<0x2F>	0
<0x30>	0
<0x31>	0
<0x32>	0
<0x33>	0
<0x34>	0
<0x35>	0
<0x36>	0
<0x37>	0
<0x38>	0
<0x39>	0
<0x3A>	0
<0x3B>	0
<0x3C>	0
<0x3D>	0
<0x3E>	0
<0x3F>	0
<0x40>	0
<0x41>	0
<0x42>	0
<0x43>	0
<0x44>	0
<0x45>	0
<0x46>	0
<0x47>	0
<0x48>	0
<0x49>	0
<0x4A>	0
<0x4B>	0
<0x4C>	0
<0x4D>	0
<0x4E>	0
<0x4F>	0
<0x50>	0
<0x51>	0
<0x52>	0
<0x53>	0
<0x54>	0
<0x55>	0
<0x56>	0
<0x57>	0
<0x58>	0
<0x59>	0
<0x5A>	0
<0x5B>	0
<0x5C>	0
<0x5D>	0
<0x5E>	0
<0x5F>	0
<0x60>	0
<0x61>	0
<0x62>	0
<0x63>	0
<0x64>	0
<0x65>	0
<0x66>	0
<0x67>	0
<0x68>	0
<0x69>	0
<0x6A>	0
<0x6B>	0
<0x6C>	0
<0x6D>	0
<0x6E>	0
<0x6F>	0
<0x70>	0
<0x71>	0
<0x72>	0
<0x73>	0
<0x74>	0
<0x75>	0
<0x76>	0
<0x77>	0
<0x78>	0
<0x79>	0
<0x7A>	0
<0x7B>	0
<0x7C>	0
<0x7D>	0
<0x7E>	0
<0x7F>	0
<0x80>	0
<0x81>	0
<0x82>	0
<0x83>	0
<0x84>	0
<0x85>	0
<0x86>	0
<0x87>	0
<0x88>	0
<0x89>	0
<0x8A>	0
<0x8B>	0
<0x8C>	0
<0x8D>	0
<0x8E>	0
<0x8F>	0
<0x90>	0
<0x91>	0
<0x92>	0
<0x93>	0
<0x94>	0
<0x95>	0
<0x96>	0
<0x97>	0
<0x98>	0
<0x99>	0
<0x9A>	0
<0x9B>	0
<0x9C>	0
<0x9D>	0
<0x9E>	0
<0x9F>	0
<0xA0>	0
<0xA1>	0
<0xA2>	0
<0xA3>	0
<0xA4>	0
<0xA5>	0
<0xA6>	0
<0xA7>	0
<0xA8>	0
<0xA9>	0
<0xAA>	0
<0xAB>	0
<0xAC>	0
<0xAD>	0
<0xAE>	0
<0xAF>	0
<0xB0>	0
<0xB1>	0
<0xB2>	0
<0xB3>	0
<0xB4>	0
<0xB5>	0
<0xB6>	0
<0xB7>	0
<0xB8>	0
<0xB9>	0
<0xBA>	0
<0xBB>	0
<0xBC>	0
<0xBD>	0
<0xBE>	0
<0xBF>	0
<0xC0>	0
<0xC1>	0
<0xC2>	0
<0xC3>	0
<0xC4>	0
<0xC5>	0
<0xC6>	0
<0xC7>	0
<0xC8>	0
<0xC9>	0
<0xCA>	0
<0xCB>	0
<0xCC>	0
<0xCD>	0
<0xCE>	0
<0xCF>	0
<0xD0>	0
<0xD1>	0
<0xD2>	0
<0xD3>	0
<0xD4>	0
<0xD5>	0
<0xD6>	0
<0xD7>	0
<0xD8>	0
<0xD9>	0
<0xDA>	0
<0xDB>	0
<0xDC>	0
<0xDD>	0
<0xDE>	0
<0xDF>	0
<0xE0>	0
<0xE1>	0
<0xE2>	0
<0xE3>	0
<0xE4>	0
<0xE5>	0
<0xE6>	0
<0xE7>	0
<0xE8>	0
<0xE9>	0
<0xEA>	0
<0xEB>	0
<0xEC>	0
<0xED>	0
<0xEE>	0
<0xEF>	0
<0xF0>	0
<0xF1>	0
<0xF2>	0
<0xF3>	0
<0xF4>	0
<0xF5>	0
<0xF6>	0
<0xF7>	0
<0xF8>	0
<0xF9>	0
<0xFA>	0
<0xFB>	0
<0xFC>	0
<0xFD>	0
<0xFE>	0
<0xFF>	0
in	-0
en	-1
ein	-2
er	-3
▁ein	-4
▁s	-5
ch	-6
▁.	-7
▁m	-8
au	-9
an	-10
un	-11
em	-12
ei	-13
▁d	-14
▁b	-15
▁h	-16
▁f	-17
it	-18
▁einem	-19
ge	-20
▁in	-21
ie	-22
und	-23
▁au	-24
▁k	-25
ar	-26
te	-27
▁mit	-28
▁auf	-29
▁,	-30
▁und	-31
▁w	-32
ann	-33
▁mann	-34
▁v	-35
sch	-36
eine	-37
▁sch	-38
on	-39
rau	-40
hr	-41
st	-42
▁einer	-43
▁ge	-44
▁g	-45
lt	-46
▁i	-47
▁r	-48
▁p	-49
tr	-50
▁l	-51
as	-52
▁z	-53
ll	-54
or	-55
ten	-56
▁frau	-57
ck	-58
▁eine	-59
▁an	-60
▁sp	-61
ter	-62
der	-63
▁j	-64
gen	-65
▁der	-66
wei	-67
ich	-68
▁gr	-69
de	-70
▁mä	-71
▁kl	-72
▁die	-73
am	-74
▁einen	-75
ht	-76
gt	-77
ben	-78
▁zu	-79
el	-80
▁n	-81
▁jun	-82
zwei	-83
chen	-84
and	-85
▁t	-86
▁bl	-87
▁im	-88
es	-89
▁spie	-90
▁ste	-91
itz	-92
ers	-93
ber	-94
hen	-95
ot	-96
▁vor	-97
ach	-98
et	-99
ft	-100
▁sitz	-101
ier	-102
▁str	-103
um	-104
▁schw	-105
all	-106
ner	-107
ßen	-108
rei	-109
at	-110
▁tr	-111
nen	-112
▁von	-113
▁sich	-114
ur	-115
ähr	-116
▁junge	-117
ung	-118
schen	-119
▁st	-120
dchen	-121
▁dem	-122
den	-123
pp	-124
▁mädchen	-125
▁wei	-126
ält	-127
▁ro	-128
▁hund	-129
eu	-130
ße	-131
arz	-132
erson	-133
ad	-134
ger	-135
sen	-136
▁schwarz	-137
nner	-138
▁kin	-139
▁person	-140
bei	-141
ahr	-142
▁steht	-143
▁stra	-144
ir	-145
▁o	-146
ppe	-147
al	-148
▁blau	-149
men	-150
▁den	-151
▁männer	-152
▁ho	-153
ut	-154
▁sitzt	-155
▁be	-156
▁hin	-157
über	-158
isch	-159
▁spiel	-160
fen	-161
se	-162
ne	-163
end	-164
▁bei	-165
uppe	-166
▁über	-167
ik	-168
äu	-169
▁straße	-170
ährend	-171
unter	-172
▁während	-173
▁spr	-174
ass	-175
▁aus	-176
il	-177
än	-178
sp	-179
▁sein	-180
▁gruppe	-181
kl	-182
▁ihr	-183
▁spielt	-184
▁hält	-185
emd	-186
▁men	-187
ball	-188
tet	-189
▁klein	-190
alt	-191
cke	-192
▁um	-193
eben	-194
▁hemd	-195
iel	-196
▁menschen	-197
ür	-198
ent	-199
ang	-200
▁kleine	-201
▁ver	-202
acht	-203
▁das	-204
▁fahr	-205
eid	-206
be	-207
ehr	-208
▁ar	-209
▁ander	-210
▁gel	-211
▁personen	-212
aar	-213
▁wass	-214
eil	-215
▁eines	-216
pf	-217
▁neben	-218
ingt	-219
ri	-220
▁am	-221
lle	-222
urch	-223
▁gro	-224
▁stehen	-225
▁sitzen	-226
▁wasser	-227
▁hinter	-228
mm	-229
gr	-230
▁blauen	-231
▁durch	-232
rad	-233
ol	-234
ab	-235
▁ist	-236
▁schau	-237
ägt	-238
▁frauen	-239
▁weißen	-240
▁roten	-241
▁kind	-242
▁ko	-243
▁spielen	-244
af	-245
▁ent	-246
ro	-247
hn	-248
re	-249
arben	-250
drei	-251
lich	-252
▁kinder	-253
ährt	-254
▁hand	-255
la	-256
fer	-257
▁geht	-258
iert	-259
ere	-260
▁grü	-261
▁trägt	-262
▁unter	-263
bo	-264
icht	-265
tel	-266
▁brau	-267
he	-268
▁fährt	-269
kt	-270
ckt	-271
eg	-272
▁er	-273
spiel	-274
gel	-275
▁bo	-276
cken	-277
▁her	-278
▁ober	-279
▁kleid	-280
▁kleines	-281
imm	-282
us	-283
▁weiß	-284
▁macht	-285
▁zwei	-286
eide	-287
▁ren	-288
▁entl	-289
os	-290
anz	-291
▁entlang	-292
▁springt	-293
▁re	-294
▁ber	-295
▁schwarzen	-296
igen	-297
▁arbei	-298
agen	-299
ind	-300
▁kleiner	-301
▁geb	-302
cht	-303
che	-304
teil	-305
eute	-306
auf	-307
▁fel	-308
ern	-309
qu	-310
▁sie	-311
▁fl	-312
▁gehen	-313
▁frei	-314
uß	-315
is	-316
ange	-317
▁or	-318
fahr	-319
▁schl	-320
kleide	-321
▁lie	-322
ischen	-323
▁ja	-324
ig	-325
▁et	-326
▁sk	-327
▁fahrrad	-328
ige	-329
▁schne	-330
sh	-331
eln	-332
alten	-333
hl	-334
▁oberteil	-335
was	-336
▁wir	-337
▁ält	-338
irt	-339
▁es	-340
▁etwas	-341
▁lä	-342
ug	-343
▁c	-344
ehrere	-345
▁ball	-346
▁seinem	-347
eit	-348
farben	-349
äude	-350
▁großen	-351
uft	-352
▁fuß	-353
ell	-354
ieren	-355
▁läu	-356
▁schnee	-357
▁bau	-358
grund	-359
▁vers	-360
rille	-361
▁gekleide	-362
ark	-363
zeu	-364
spieler	-365
▁jungen	-366
ander	-367
▁se	-368
▁kam	-369
bt	-370
▁hoch	-371
ort	-372
sam	-373
▁son	-374
▁luft	-375
boar	-376
▁nach	-377
▁grünen	-378
ild	-379
mehrere	-380
era	-381
ze	-382
▁strand	-383
ster	-384
▁läuft	-385
weg	-386
▁gebäude	-387
▁sind	-388
▁fot	-389
bl	-390
▁da	-391
ate	-392
zen	-393
▁bas	-394
▁nä	-395
▁für	-396
▁hintergrund	-397
▁vo	-398
▁freien	-399
shirt	-400
ör	-401
▁hat	-402
die	-403
▁jacke	-404
rü	-405
▁kopf	-406
▁leute	-407
▁&	-408
aufen	-409
▁anderen	-410
▁kleidung	-411
▁schaut	-412
▁rot	-413
zeug	-414
▁vorbei	-415
▁renn	-416
asi	-417
ett	-418
▁junger	-419
▁gras	-420
äft	-421
to	-422
▁bli	-423
ag	-424
▁tisch	-425
üt	-426
itar	-427
schau	-428
▁haar	-429
ank	-430
▁asi	-431
▁geh	-432
▁essen	-433
aus	-434
quot	-435
▁foto	-436
▁orange	-437
lat	-438
sten	-439
menge	-440
fahrer	-441
▁andere	-442
achen	-443
angen	-444
▁gelben	-445
ün	-446
sche	-447
ap	-448
ühr	-449
▁rei	-450
fon	-451
▁le	-452
▁ih	-453
▁wie	-454
▁war	-455
hne	-456
board	-457
umen	-458
▁hut	-459
▁ab	-460
stü	-461
▁wird	-462
▁hän	-463
sa	-464
str	-465
▁un	-466
▁nähe	-467
ing	-468
▁bü	-469
▁beim	-470
▁gegen	-471
amm	-472
▁al	-473
▁kleinen	-474
▁gesch	-475
▁kamera	-476
▁park	-477
▁stad	-478
iger	-479
▁fußball	-480
▁menschenmenge	-481
▁blon	-482
ahn	-483
ans	-484
▁schwarzer	-485
▁älter	-486
utz	-487
▁paar	-488
ow	-489
ische	-490
▁hunde	-491
fe	-492
farbenen	-493
otor	-494
▁boden	-495
det	-496
ste	-497
vier	-498
etter	-499
▁gitar	-500
är	-501
art	-502
ert	-503
▁asiat	-504
eig	-505
ver	-506
▁schwimm	-507
sst	-508
op	-509
▁sonnen	-510
▁skate	-511
uch	-512
ion	-513
▁rennt	-514
▁zusam	-515
▁feld	-516
▁ihre	-517
ink	-518
▁grau	-519
ucht	-520
▁stadt	-521
▁je	-522
fl	-523
ler	-524
latz	-525
dern	-526
▁dam	-527
▁dun	-528
▁pu	-529
▁pos	-530
▁straßen	-531
▁br	-532
▁gl	-533
▁tanz	-534
▁zuschau	-535
elt	-536
▁des	-537
▁ihren	-538
fin	-539
▁zusammen	-540
▁seine	-541
ßer	-542
ho	-543
▁te	-544
▁zei	-545
einander	-546
▁sand	-547
kleid	-548
▁unterh	-549
▁hü	-550
tes	-551
steig	-552
mp	-553
▁herum	-554
▁a	-555
▁ei	-556
▁pfer	-557
▁gitarre	-558
ingen	-559
kel	-560
▁wer	-561
geb	-562
▁motor	-563
▁kü	-564
▁älterer	-565
▁schn	-566
raußen	-567
▁fahren	-568
elm	-569
▁so	-570
▁schu	-571
▁jeans	-572
des	-573
lz	-574
▁bür	-575
▁ges	-576
▁bühne	-577
▁rennen	-578
kleidung	-579
▁sh	-580
▁draußen	-581
▁ru	-582
▁befin	-583
▁gest	-584
ob	-585
▁gew	-586
▁brille	-587
arbei	-588
▁gehweg	-589
▁zie	-590
ade	-591
ller	-592
▁skateboard	-593
wach	-594
▁sehen	-595
aby	-596
wagen	-597
▁hell	-598
ss	-599
cheln	-600
▁base	-601
deck	-602
▁rau	-603
▁hinunter	-604
ikro	-605
▁kletter	-606
achtet	-607
wachsen	-608
llen	-609
ischer	-610
▁mikro	-611
▁dabei	-612
ock	-613
▁kur	-614
▁baby	-615
▁blickt	-616
▁seinen	-617
▁laufen	-618
▁weißer	-619
▁lächeln	-620
▁kar	-621
▁stu	-622
▁berei	-623
brille	-624
iz	-625
chelt	-626
▁baum	-627
▁holz	-628
▁braunen	-629
▁me	-630
arkt	-631
haar	-632
▁liegt	-633
ff	-634
▁man	-635
▁versucht	-636
▁dar	-637
▁verk	-638
llt	-639
ührt	-640
▁arbeitet	-641
aft	-642
▁bank	-643
▁tragen	-644
zug	-645
nis	-646
▁wand	-647
lichen	-648
lag	-649
▁als	-650
▁tre	-651
▁betr	-652
ant	-653
ick	-654
bahn	-655
▁schie	-656
▁bel	-657
ko	-658
▁dame	-659
▁grün	-660
▁machen	-661
▁baseball	-662
per	-663
▁lächelt	-664
▁schauen	-665
ffen	-666
irm	-667
▁mau	-668
▁große	-669
for	-670
ket	-671
ren	-672
▁alt	-673
▁bürger	-674
▁brauner	-675
eren	-676
▁drei	-677
▁ihrem	-678
rä	-679
usik	-680
▁wal	-681
ikot	-682
ütze	-683
mä	-684
▁gestrei	-685
▁arbeiten	-686
▁orangefarbenen	-687
▁ihm	-688
▁sei	-689
▁versch	-690
unst	-691
assen	-692
▁bürgersteig	-693
le	-694
▁gesicht	-695
▁braun	-696
ack	-697
uss	-698
▁junges	-699
▁ältere	-700
▁weg	-701
bedeck	-702
▁hose	-703
ßt	-704
▁we	-705
▁zeigt	-706
▁u	-707
▁gem	-708
▁sieht	-709
▁motorrad	-710
im	-711
arbeiter	-712
▁spricht	-713
▁unterhalten	-714
▁kr	-715
ikan	-716
leute	-717
schaft	-718
▁liest	-719
tele	-720
sehen	-721
▁boot	-722
▁auto	-723
afarben	-724
telefon	-725
fit	-726
stau	-727
▁wald	-728
▁halten	-729
▁erwachsen	-730
we	-731
▁rad	-732
▁bild	-733
▁trikot	-734
gl	-735
ke	-736
▁ten	-737
ine	-738
itt	-739
mann	-740
schu	-741
▁haaren	-742
amp	-743
mer	-744
▁gelb	-745
▁kunst	-746
platz	-747
▁hosen	-748
▁fe	-749
ät	-750
▁leu	-751
▁rosa	-752
ften	-753
iele	-754
▁meer	-755
ecke	-756
▁tag	-757
▁helm	-758
eich	-759
▁sur	-760
▁zum	-761
staur	-762
▁pferd	-763
▁sonnenbrille	-764
▁musik	-765
▁tennis	-766
staurant	-767
▁band	-768
▁stein	-769
▁ka	-770
orts	-771
liche	-772
▁kn	-773
asch	-774
▁beob	-775
ketball	-776
▁gekleidete	-777
▁bä	-778
▁seiner	-779
fel	-780
ück	-781
▁na	-782
▁bes	-783
▁felsen	-784
▁arm	-785
▁la	-786
brau	-787
▁berg	-788
oot	-789
▁weißem	-790
▁restaurant	-791
▁ta	-792
inder	-793
▁grauen	-794
▁co	-795
▁singt	-796
▁geschäft	-797
▁ihnen	-798
menschen	-799
zu	-800
▁pf	-801
▁gelän	-802
▁blauem	-803
etz	-804
wer	-805
▁ha	-806
ootball	-807
euer	-808
br	-809
▁mantel	-810
llo	-811
mit	-812
▁fen	-813
▁dunkel	-814
▁mikrofon	-815
ünf	-816
▁basketball	-817
▁posiert	-818
use	-819
männer	-820
▁darauf	-821
▁wo	-822
▁pol	-823
ien	-824
▁fr	-825
asen	-826
▁pro	-827
▁versamm	-828
▁klettert	-829
ken	-830
anzug	-831
▁führt	-832
▁shorts	-833
▁spielzeug	-834
▁befindet	-835
▁ob	-836
asse	-837
▁ros	-838
uchen	-839
ungen	-840
sie	-841
inkt	-842
emand	-843
ja	-844
▁spa	-845
örper	-846
▁regen	-847
eb	-848
ppen	-849
▁sport	-850
▁fenster	-851
iet	-852
llover	-853
▁blumen	-854
▁football	-855
ifor	-856
▁flie	-857
kinder	-858
▁telefon	-859
scht	-860
achten	-861
▁wirft	-862
▁blauer	-863
▁schwarzem	-864
aun	-865
hnt	-866
iv	-867
das	-868
ges	-869
▁schrei	-870
▁gekleideter	-871
▁bade	-872
▁sehr	-873
ette	-874
▁anzug	-875
aten	-876
cher	-877
gesch	-878
stand	-879
▁bun	-880
änger	-881
▁raum	-882
licher	-883
▁to	-884
▁oder	-885
▁zeit	-886
▁ins	-887
▁rotem	-888
ain	-889
▁po	-890
▁zw	-891
▁kon	-892
▁isst	-893
▁rosafarben	-894
▁ne	-895
▁gen	-896
▁männern	-897
unden	-898
▁feuer	-899
▁wiese	-900
▁anderer	-901
▁kindern	-902
äut	-903
becken	-904
▁schwarze	-905
ah	-906
hon	-907
▁roter	-908
▁langen	-909
▁wartet	-910
▁pullover	-911
schw	-912
▁spieler	-913
▁springen	-914
▁met	-915
▁maul	-916
▁teil	-917
haarige	-918
▁tanzen	-919
stu	-920
immer	-921
▁schutz	-922
▁werden	-923
körper	-924
schirm	-925
▁fluss	-926
▁weiße	-927
blau	-928
gang	-929
▁ruck	-930
▁posieren	-931
▁gestreiften	-932
gend	-933
▁bluse	-934
ekt	-935
ckey	-936
▁hal	-937
▁män	-938
▁ange	-939
▁hügel	-940
▁stuhl	-941
▁schild	-942
zer	-943
auft	-944
sack	-945
zeit	-946
▁ö	-947
ill	-948
▁dr	-949
kind	-950
▁buch	-951
▁beleb	-952
▁überqu	-953
dem	-954
▁sn	-955
▁eis	-956
achts	-957
▁dunkl	-958
▁handy	-959
▁voller	-960
▁oberkörper	-961
her	-962
▁umge	-963
▁bereitet	-964
fünf	-965
viele	-966
▁schm	-967
▁wander	-968
▁mo	-969
▁vi	-970
▁fest	-971
▁getr	-972
ierten	-973
▁fotogr	-974
▁metall	-975
▁warten	-976
ist	-977
▁bar	-978
▁brü	-979
ess	-980
ater	-981
eiten	-982
▁poliz	-983
▁zwischen	-984
▁betrachtet	-985
person	-986
▁en	-987
▁fri	-988
▁haus	-989
▁seil	-990
▁genie	-991
▁he	-992
este	-993
▁fels	-994
▁blonde	-995
▁unifor	-996
▁af	-997
▁eink	-998
erikan	-999
▁alter	-1000
▁kä	-1001
schl	-1002
äger	-1003
▁bet	-1004
ieden	-1005
▁spaz	-1006
▁leuten	-1007
▁schläft	-1008
äss	-1009
utzt	-1010
▁bus	-1011
▁lil	-1012
chten	-1013
▁oben	-1014
▁stock	-1015
▁zieht	-1016
old	-1017
immt	-1018
wand	-1019
▁mar	-1020
▁rut	-1021
isten	-1022
sieht	-1023
▁viel	-1024
altung	-1025
sk	-1026
▁mütze	-1027
personen	-1028
dr	-1029
häut	-1030
▁zug	-1031
▁lehnt	-1032
▁reitet	-1033
del	-1034
▁pap	-1035
ation	-1036
▁markt	-1037
▁händen	-1038
ena	-1039
fest	-1040
▁dav	-1041
▁fre	-1042
ücken	-1043
▁snow	-1044
▁ch	-1045
ichtung	-1046
▁arbeiter	-1047
▁herunter	-1048
▁beobachtet	-1049
▁miteinander	-1050
▁lang	-1051
▁pink	-1052
▁kostü	-1053
▁bäumen	-1054
▁rucksack	-1055
▁kleinkind	-1056
ahl	-1057
kor	-1058
▁ihrer	-1059
▁tanzt	-1060
▁e	-1061
di	-1062
og	-1063
▁tur	-1064
▁zaun	-1065
▁-	-1066
amil	-1067
▁all	-1068
▁mitt	-1069
ul	-1070
feld	-1071
▁ger	-1072
stück	-1073
▁land	-1074
▁männ	-1075
aschine	-1076
▁see	-1077
▁vom	-1078
▁beton	-1079
▁schein	-1080
▁schiebt	-1081
▁befinden	-1082
ärt	-1083
▁bal	-1084
▁haben	-1085
▁gewäss	-1086
▁fotograf	-1087
üllt	-1088
▁ski	-1089
▁groß	-1090
weißer	-1091
▁schwimmbecken	-1092
▁ju	-1093
band	-1094
tern	-1095
▁ben	-1096
stein	-1097
gruppe	-1098
▁orangefarben	-1099
▁schneebedeck	-1100
hal	-1101
uck	-1102
▁graf	-1103
▁famil	-1104
▁küche	-1105
▁rücken	-1106
ue	-1107
bar	-1108
äche	-1109
▁tür	-1110
inken	-1111
▁seite	-1112
schuhen	-1113
▁einkauf	-1114
igt	-1115
hlen	-1116
▁out	-1117
äufer	-1118
▁instr	-1119
▁welle	-1120
▁arbeit	-1121
▁kurzen	-1122
▁sprung	-1123
▁umgeben	-1124
▁radfahrer	-1125
▁verschieden	-1126
ast	-1127
att	-1128
eidet	-1129
▁gera	-1130
▁schlag	-1131
me	-1132
ies	-1133
sbe	-1134
tos	-1135
ampe	-1136
boarder	-1137
▁treppe	-1138
▁graffit	-1139
▁gef	-1140
emden	-1141
stelle	-1142
net	-1143
spr	-1144
▁de	-1145
anst	-1146
▁zur	-1147
sport	-1148
utter	-1149
▁papier	-1150
▁verkauft	-1151
▁lei	-1152
▁tau	-1153
▁flag	-1154
▁schla	-1155
▁farben	-1156
▁versammelt	-1157
bau	-1158
stra	-1159
innen	-1160
▁fangen	-1161
▁gerade	-1162
▁geträn	-1163
▁trinkt	-1164
ds	-1165
öpf	-1166
frau	-1167
▁offen	-1168
▁mitten	-1169
▁familie	-1170
▁aussehen	-1171
ühren	-1172
▁mehr	-1173
isches	-1174
▁schreibt	-1175
▁rosafarbenen	-1176
dt	-1177
ief	-1178
▁ihn	-1179
▁tor	-1180
▁hängt	-1181
geschäft	-1182
anstaltung	-1183
▁schneidet	-1184
yp	-1185
boy	-1186
mmen	-1187
stre	-1188
unge	-1189
inter	-1190
▁sonn	-1191
zimmer	-1192
ser	-1193
▁cow	-1194
▁pla	-1195
mpfen	-1196
unnen	-1197
▁autos	-1198
▁platz	-1199
▁einige	-1200
▁spazieren	-1201
▁telefoniert	-1202
deo	-1203
hut	-1204
mmt	-1205
▁gu	-1206
weiß	-1207
stung	-1208
weißen	-1209
▁wagen	-1210
▁belebten	-1211
ak	-1212
mpu	-1213
par	-1214
alen	-1215
▁gep	-1216
arten	-1217
itten	-1218
▁malt	-1219
enager	-1220
▁bunten	-1221
▁asiatische	-1222
arb	-1223
▁lo	-1224
chte	-1225
ünst	-1226
▁bik	-1227
schri	-1228
▁bahn	-1229
▁vier	-1230
blauen	-1231
▁nimmt	-1232
▁reihe	-1233
▁frisbe	-1234
▁großer	-1235
▁schwimmt	-1236
▁zuschauer	-1237
▁bauarbeiter	-1238
hör	-1239
kam	-1240
immel	-1241
jacke	-1242
▁rasen	-1243
▁blicken	-1244
▁gewässer	-1245
lley	-1246
ogen	-1247
▁dre	-1248
▁rock	-1249
▁rote	-1250
▁viol	-1251
▁denen	-1252
tlichen	-1253
▁freiem	-1254
▁frisbee	-1255
▁schneebedeckten	-1256
ikum	-1257
▁schü	-1258
▁himmel	-1259
▁lachen	-1260
▁vielen	-1261
▁schlägt	-1262
▁zeitung	-1263
▁gekleidet	-1264
▁erwachsene	-1265
▁kopfbedeck	-1266
atte	-1267
hmen	-1268
▁kan	-1269
stuhl	-1270
▁bart	-1271
blikum	-1272
straße	-1273
▁compu	-1274
▁brücke	-1275
▁cowboy	-1276
▁hinauf	-1277
▁gebäudes	-1278
▁sonnigen	-1279
arm	-1280
ust	-1281
fall	-1282
ügen	-1283
zogen	-1284
▁fisch	-1285
▁hände	-1286
rüstung	-1287
▁fliegt	-1288
▁jemand	-1289
lleyball	-1290
▁geländer	-1291
▁publikum	-1292
▁teenager	-1293
▁ü	-1294
▁wä	-1295
jekt	-1296
▁tro	-1297
▁typ	-1298
markt	-1299
▁hebt	-1300
▁leben	-1301
▁shirt	-1302
▁tasche	-1303
▁kämpfen	-1304
▁richtung	-1305
▁ak	-1306
hemd	-1307
▁stä	-1308
fläche	-1309
▁kampf	-1310
schwarz	-1311
▁hemden	-1312
▁schult	-1313
▁dunklen	-1314
chs	-1315
unde	-1316
ängt	-1317
▁beg	-1318
mittel	-1319
▁weste	-1320
▁öffen	-1321
▁grünem	-1322
▁orangen	-1323
▁schutzh	-1324
gew	-1325
esen	-1326
rich	-1327
▁hof	-1328
asche	-1329
▁hohen	-1330
▁repar	-1331
▁graffiti	-1332
▁bu	-1333
wehr	-1334
werk	-1335
ellen	-1336
▁augen	-1337
▁outfit	-1338
▁weißes	-1339
▁spielplatz	-1340
▁gi	-1341
igar	-1342
ungs	-1343
ummer	-1344
▁bier	-1345
▁hals	-1346
ünstler	-1347
▁liegen	-1348
▁überqueren	-1349
▁kopfbedeckung	-1350
pft	-1351
▁tritt	-1352
▁zigar	-1353
▁mannes	-1354
▁schirm	-1355
▁winter	-1356
▁mittler	-1357
▁uniform	-1358
▁zuschauen	-1359
▁asiatischer	-1360
anc	-1361
aub	-1362
bank	-1363
fern	-1364
hose	-1365
ling	-1366
▁pfl	-1367
inger	-1368
ument	-1369
▁flug	-1370
▁herr	-1371
haariger	-1372
▁blondes	-1373
hü	-1374
zt	-1375
ärm	-1376
atue	-1377
▁glas	-1378
▁davon	-1379
▁mutter	-1380
▁verschn	-1381
▁bereiten	-1382
▁el	-1383
▁gol	-1384
▁hör	-1385
▁par	-1386
etten	-1387
▁pool	-1388
▁schö	-1389
▁verl	-1390
laster	-1391
▁ausge	-1392
▁schal	-1393
brauner	-1394
schrift	-1395
▁ziegel	-1396
▁genießt	-1397
▁mehrere	-1398
▁dunkelhäut	-1399
kon	-1400
▁hil	-1401
▁kor	-1402
brett	-1403
▁alte	-1404
▁dach	-1405
▁team	-1406
jemand	-1407
▁blaue	-1408
▁decke	-1409
▁stück	-1410
▁train	-1411
smittel	-1412
▁bereit	-1413
▁computer	-1414
▁mittleren	-1415
fa	-1416
änd	-1417
▁klei	-1418
rädern	-1419
▁lacht	-1420
▁mauer	-1421
▁schür	-1422
gebäude	-1423
▁gleich	-1424
▁schaukel	-1425
▁karierten	-1426
▁zuschauern	-1427
▁fußballspieler	-1428
▁hö	-1429
eigt	-1430
haus	-1431
ickt	-1432
tellt	-1433
▁gemü	-1434
▁roll	-1435
▁zelt	-1436
▁alters	-1437
▁vorder	-1438
▁benutzt	-1439
▁kunststück	-1440
hält	-1441
anten	-1442
▁grei	-1443
einige	-1444
▁alten	-1445
▁jugend	-1446
amerikan	-1447
▁mü	-1448
elmen	-1449
▁ries	-1450
gänger	-1451
▁menge	-1452
▁städt	-1453
▁einigen	-1454
▁unterhält	-1455
oß	-1456
ied	-1457
▁bein	-1458
▁mund	-1459
▁nahe	-1460
▁obst	-1461
▁voll	-1462
▁fotos	-1463
▁mitte	-1464
▁großes	-1465
▁zusieht	-1466
vor	-1467
bild	-1468
halb	-1469
▁sil	-1470
▁stü	-1471
immen	-1472
kampf	-1473
under	-1474
▁lila	-1475
▁sofa	-1476
fahren	-1477
▁armen	-1478
▁außer	-1479
▁trinken	-1480
▁zuschaut	-1481
▁nebeneinander	-1482
fuß	-1483
ons	-1484
pfen	-1485
▁geg	-1486
deckt	-1487
▁verw	-1488
▁wett	-1489
▁lässt	-1490
▁nicht	-1491
▁weihn	-1492
▁mensch	-1493
▁zusehen	-1494
▁lebensmittel	-1495
▁baseballspieler	-1496
vo	-1497
grü	-1498
igk	-1499
ini	-1500
affe	-1501
geln	-1502
teln	-1503
▁hei	-1504
▁kap	-1505
eitet	-1506
▁kurz	-1507
▁kniet	-1508
▁schüt	-1509
▁sonne	-1510
▁gemüse	-1511
▁nachts	-1512
▁einkaufs	-1513
▁gegenstand	-1514
kr	-1515
auer	-1516
ines	-1517
itzt	-1518
▁for	-1519
ition	-1520
▁aben	-1521
▁ufer	-1522
▁blick	-1523
▁hinten	-1524
▁versuchen	-1525
▁zigarette	-1526
▁volleyball	-1527
fro	-1528
len	-1529
▁cl	-1530
▁sa	-1531
erne	-1532
▁fla	-1533
▁sto	-1534
junge	-1535
▁gibt	-1536
▁star	-1537
▁stre	-1538
▁unbe	-1539
▁nacht	-1540
▁strei	-1541
▁führen	-1542
▁gelber	-1543
▁treten	-1544
▁scheint	-1545
▁mehreren	-1546
▁beobachten	-1547
ause	-1548
stik	-1549
▁ker	-1550
kostü	-1551
▁bett	-1552
▁wein	-1553
▁hockey	-1554
▁surfer	-1555
rt	-1556
▁pl	-1557
etzt	-1558
rück	-1559
▁bil	-1560
▁wur	-1561
rikan	-1562
spann	-1563
▁pfad	-1564
▁sold	-1565
▁beide	-1566
▁fängt	-1567
▁trick	-1568
▁flagge	-1569
▁raucht	-1570
▁farbenfro	-1571
▁öffentlichen	-1572
ek	-1573
tur	-1574
alle	-1575
park	-1576
zert	-1577
▁bew	-1578
▁fei	-1579
cktem	-1580
▁bärt	-1581
▁beleu	-1582
▁ferne	-1583
▁handt	-1584
▁garten	-1585
▁nummer	-1586
▁stange	-1587
▁stufen	-1588
▁schürze	-1589
▁trikots	-1590
▁feuerwehr	-1591
▁betrachten	-1592
▁verschneiten	-1593
ka	-1594
aben	-1595
eite	-1596
heit	-1597
iges	-1598
▁art	-1599
▁bow	-1600
anzen	-1601
gehen	-1602
stell	-1603
▁krei	-1604
▁part	-1605
▁grill	-1606
▁laden	-1607
▁reden	-1608
▁gegner	-1609
▁gehsteig	-1610
▁weihnachts	-1611
oh	-1612
hof	-1613
los	-1614
nah	-1615
üst	-1616
olgt	-1617
issen	-1618
mütze	-1619
änzer	-1620
▁müll	-1621
gebung	-1622
▁viele	-1623
▁blonden	-1624
ausrüstung	-1625
▁veranstaltung	-1626
phon	-1627
▁back	-1628
▁geld	-1629
▁pass	-1630
▁surf	-1631
▁rampe	-1632
▁rotes	-1633
▁unten	-1634
▁einander	-1635
▁außerhalb	-1636
▁tennisball	-1637
man	-1638
öff	-1639
boot	-1640
atten	-1641
▁afro	-1642
▁gemein	-1643
▁weiter	-1644
▁afrikan	-1645
▁plastik	-1646
untergang	-1647
▁fußgänger	-1648
▁mannschaft	-1649
▁erwachsener	-1650
▁snowboarder	-1651
do	-1652
ub	-1653
▁ku	-1654
▁ind	-1655
▁dass	-1656
▁gele	-1657
▁greift	-1658
▁roller	-1659
▁zurück	-1660
▁rutscht	-1661
▁leuchten	-1662
▁wanderer	-1663
▁instrumen	-1664
▁snowboard	-1665
▁sonnenuntergang	-1666
co	-1667
own	-1668
ume	-1669
▁fä	-1670
▁ke	-1671
▁mö	-1672
eugt	-1673
köpf	-1674
mauer	-1675
▁kapu	-1676
▁turn	-1677
liches	-1678
schild	-1679
▁braut	-1680
▁hilft	-1681
▁hüten	-1682
otorrad	-1683
▁bikini	-1684
▁braune	-1685
▁bowling	-1686
▁brunnen	-1687
▁klassen	-1688
▁kleidern	-1689
▁aufschrift	-1690
▁fotografiert	-1691
aw	-1692
ase	-1693
▁fü	-1694
▁ma	-1695
eibe	-1696
geht	-1697
ings	-1698
obil	-1699
weat	-1700
▁bem	-1701
uster	-1702
festig	-1703
▁angel	-1704
▁besch	-1705
▁beste	-1706
▁surft	-1707
▁beiden	-1708
▁werfen	-1709
pflaster	-1710
weatshirt	-1711
▁bärtiger	-1712
▁polizist	-1713
▁männliche	-1714
▁kampfsport	-1715
pu	-1716
▁y	-1717
jak	-1718
ont	-1719
umm	-1720
▁kö	-1721
auto	-1722
endet	-1723
sechs	-1724
▁arme	-1725
grünen	-1726
▁haare	-1727
▁gelbem	-1728
▁grüner	-1729
▁leiter	-1730
▁fahrzeug	-1731
▁hochzeit	-1732
▁kostümen	-1733
▁überquert	-1734
akt	-1735
ftem	-1736
hnen	-1737
oten	-1738
▁jog	-1739
▁kat	-1740
▁neu	-1741
▁the	-1742
ockey	-1743
zentr	-1744
ünger	-1745
▁korb	-1746
▁legt	-1747
rennen	-1748
▁damen	-1749
▁vogel	-1750
▁statue	-1751
▁nacktem	-1752
skleidung	-1753
▁skifahrer	-1754
▁sweatshirt	-1755
▁versammeln	-1756
▁erwachsenen	-1757
▁städtischen	-1758
▁afroamerikan	-1759
kw	-1760
unt	-1761
▁pa	-1762
▁wa	-1763
auch	-1764
kelt	-1765
rand	-1766
▁anz	-1767
▁fall	-1768
frauen	-1769
reifen	-1770
▁gelbe	-1771
▁lesen	-1772
▁nehmen	-1773
▁amerikan	-1774
▁maschine	-1775
▁gemeinsam	-1776
top	-1777
▁do	-1778
▁tä	-1779
form	-1780
▁kajak	-1781
▁kommt	-1782
▁leine	-1783
▁blaues	-1784
▁jünger	-1785
▁getränk	-1786
▁rutsche	-1787
▁schlamm	-1788
▁schmutz	-1789
▁lilafarben	-1790
sä	-1791
ukt	-1792
ilit	-1793
ippe	-1794
ssen	-1795
team	-1796
▁caf	-1797
athon	-1798
boden	-1799
▁fern	-1800
▁rein	-1801
▁spre	-1802
▁trad	-1803
iefeln	-1804
▁guckt	-1805
▁waren	-1806
braunen	-1807
▁kostüm	-1808
▁reifen	-1809
▁silber	-1810
▁stellt	-1811
▁westen	-1812
maschine	-1813
▁blonder	-1814
▁kopfhör	-1815
▁genießen	-1816
▁tradition	-1817
▁unbefestig	-1818
▁regenschirm	-1819
aut	-1820
erle	-1821
führ	-1822
oren	-1823
stän	-1824
verk	-1825
diese	-1826
öcken	-1827
▁weib	-1828
kostüm	-1829
mitten	-1830
▁eimer	-1831
▁leder	-1832
▁durchs	-1833
▁leeren	-1834
▁pferde	-1835
▁seifen	-1836
▁singen	-1837
▁wellen	-1838
▁musiker	-1839
▁stühlen	-1840
▁verkehr	-1841
▁entspann	-1842
▁klettern	-1843
▁schlafen	-1844
▁mikrophon	-1845
▁schlagzeug	-1846
▁schutzhelm	-1847
▁asiatischen	-1848
ip	-1849
äum	-1850
aske	-1851
cker	-1852
eigen	-1853
▁ende	-1854
▁ohne	-1855
▁wohn	-1856
eichen	-1857
▁wobei	-1858
▁balanc	-1859
▁kaufen	-1860
gestellt	-1861
▁spiegel	-1862
▁streckt	-1863
▁sprechen	-1864
▁umgebung	-1865
▁gekleideten	-1866
▁gestreiftem	-1867
bik	-1868
kar	-1869
▁hu	-1870
▁ir	-1871
afen	-1872
belt	-1873
bung	-1874
dert	-1875
eige	-1876
hund	-1877
ssel	-1878
▁che	-1879
▁ras	-1880
▁säu	-1881
eller	-1882
instr	-1883
▁dies	-1884
▁kraw	-1885
blasen	-1886
▁kaffe	-1887
▁mobil	-1888
▁rodeo	-1889
▁umarm	-1890
▁vater	-1891
▁freund	-1892
▁heraus	-1893
▁läufer	-1894
▁sicher	-1895
▁schuhen	-1896
▁wassers	-1897
▁inmitten	-1898
▁riesigen	-1899
▁schwingt	-1900
▁badeanzug	-1901
tow	-1902
ulp	-1903
inie	-1904
▁lap	-1905
▁ohr	-1906
▁pad	-1907
eisen	-1908
halle	-1909
räder	-1910
äuden	-1911
▁ganz	-1912
▁sohn	-1913
▁werk	-1914
richter	-1915
▁gegend	-1916
▁gelbes	-1917
▁grauem	-1918
▁laptop	-1919
▁parade	-1920
▁anderes	-1921
▁konzert	-1922
▁treppen	-1923
▁älteren	-1924
▁schlagen	-1925
▁gegenüber	-1926
▁parkplatz	-1927
▁uniformen	-1928
▁instrument	-1929
▁pinkfarben	-1930
▁polizisten	-1931
▁handschuhen	-1932
od	-1933
üß	-1934
euz	-1935
aden	-1936
atur	-1937
farb	-1938
skop	-1939
▁hört	-1940
▁rück	-1941
ilitär	-1942
▁tätow	-1943
▁bergen	-1944
▁finger	-1945
▁spring	-1946
▁starrt	-1947
▁unters	-1948
▁offenen	-1949
bewachsen	-1950
▁gebäuden	-1951
▁geländem	-1952
▁marathon	-1953
▁schwimmen	-1954
▁kinderwagen	-1955
▁straßenecke	-1956
▁straßenrand	-1957
▁jugendlicher	-1958
by	-1959
oto	-1960
anne	-1961
kten	-1962
schn	-1963
▁lkw	-1964
anken	-1965
schuh	-1966
teten	-1967
▁jagt	-1968
verall	-1969
▁schoß	-1970
▁tänzer	-1971
▁umarmt	-1972
▁bereich	-1973
▁lächelnd	-1974
▁schatten	-1975
▁backstein	-1976
▁baustelle	-1977
▁schwarzes	-1978
▁verkleide	-1979
▁pinkfarbenen	-1980
▁motorradfahrer	-1981
bst	-1982
gem	-1983
inn	-1984
ork	-1985
ober	-1986
▁kir	-1987
alter	-1988
einer	-1989
eisch	-1990
ennen	-1991
erlea	-1992
ierte	-1993
irmen	-1994
▁beko	-1995
▁blät	-1996
▁gold	-1997
▁link	-1998
ulptur	-1999
▁grüne	-2000
▁party	-2001
▁pause	-2002
▁stand	-2003
▁wasch	-2004
fenster	-2005
strecke	-2006
▁chines	-2007
▁jacken	-2008
▁kuchen	-2009
▁wunder	-2010
▁krawatte	-2011
▁künstler	-2012
▁grasbewachsen	-2013
▁dunkelhäutiger	-2014
ive	-2015
tro	-2016
▁wü	-2017
▁gut	-2018
▁näh	-2019
▁zer	-2020
▁ärm	-2021
aften	-2022
chter	-2023
itzen	-2024
utzen	-2025
▁abge	-2026
▁einz	-2027
▁fell	-2028
▁lauf	-2029
▁netz	-2030
▁tier	-2031
läufer	-2032
üllten	-2033
▁clown	-2034
▁glück	-2035
stwagen	-2036
▁schnau	-2037
▁sänger	-2038
▁bedeckt	-2039
▁militär	-2040
▁pflanzen	-2041
▁soldaten	-2042
▁repariert	-2043
▁verkaufen	-2044
▁gepflaster	-2045
▁vordergrund	-2046
▁schreibtisch	-2047
▁orangefarbener	-2048
ok	-2049
pr	-2050
arn	-2051
ipp	-2052
tre	-2053
äun	-2054
amen	-2055
ient	-2056
iste	-2057
korb	-2058
lage	-2059
asser	-2060
tritt	-2061
▁alle	-2062
itarre	-2063
▁einge	-2064
▁putzt	-2065
▁tromm	-2066
chteten	-2067
▁kurzer	-2068
▁taschen	-2069
▁hellhäut	-2070
▁schulter	-2071
▁gekleidetes	-2072
▁fußballspiel	-2073
▁verschiedene	-2074
▁gegeneinander	-2075
▁geländemotorrad	-2076
ve	-2077
app	-2078
pro	-2079
▁pr	-2080
▁qu	-2081
erin	-2082
▁anh	-2083
▁was	-2084
▁öff	-2085
druck	-2086
eiden	-2087
ieder	-2088
orfen	-2089
seite	-2090
sicht	-2091
gelben	-2092
kleine	-2093
westen	-2094
führung	-2095
▁baumst	-2096
▁grünes	-2097
▁overall	-2098
dsrichter	-2099
▁jemandem	-2100
▁sandalen	-2101
▁schläger	-2102
▁angezogen	-2103
▁mikroskop	-2104
▁schlitten	-2105
▁balanciert	-2106
▁fahrrädern	-2107
▁asiatisches	-2108
▁tennisspieler	-2109
atz	-2110
sto	-2111
unn	-2112
ankt	-2113
deon	-2114
hand	-2115
raum	-2116
sern	-2117
telt	-2118
▁lab	-2119
ahnen	-2120
ckelt	-2121
führt	-2122
laden	-2123
nahme	-2124
ppich	-2125
weste	-2126
gebiet	-2127
▁akkor	-2128
▁beugt	-2129
▁dreht	-2130
▁innen	-2131
▁kreis	-2132
▁setzt	-2133
▁winkt	-2134
▁ziehen	-2135
fahrzeug	-2136
schläger	-2137
▁gelände	-2138
▁pferden	-2139
▁schlauch	-2140
▁stiefeln	-2141
▁mobiltelefon	-2142
▁einkaufswagen	-2143
hak	-2144
iff	-2145
zie	-2146
deln	-2147
felt	-2148
hang	-2149
luft	-2150
lung	-2151
schö	-2152
▁jon	-2153
▁erde	-2154
▁farb	-2155
▁fünf	-2156
▁gesp	-2157
▁kanu	-2158
▁khak	-2159
▁pick	-2160
▁rand	-2161
▁verf	-2162
▁fällt	-2163
▁rollt	-2164
▁video	-2165
anzügen	-2166
bereich	-2167
▁irgend	-2168
▁küssen	-2169
▁reiten	-2170
stellung	-2171
▁kapuzen	-2172
▁felswand	-2173
▁flugzeug	-2174
▁halsband	-2175
▁akkordeon	-2176
▁surfbrett	-2177
▁rothaarige	-2178
▁klassenzimmer	-2179
▁orangefarbenem	-2180
eut	-2181
ift	-2182
urs	-2183
igem	-2184
wegs	-2185
ischt	-2186
roten	-2187
unnel	-2188
weiße	-2189
▁büro	-2190
▁elek	-2191
▁form	-2192
▁golf	-2193
▁höhe	-2194
▁koch	-2195
▁komp	-2196
anktop	-2197
▁außen	-2198
▁davor	-2199
gitarre	-2200
scheibe	-2201
▁dessen	-2202
▁zeigen	-2203
▁belebte	-2204
▁fleisch	-2205
▁badehose	-2206
▁gesichts	-2207
▁lächelnde	-2208
▁sicherheit	-2209
▁hellbrauner	-2210
▁unbefestigten	-2211
▁schiedsrichter	-2212
lo	-2213
ru	-2214
enn	-2215
irn	-2216
ord	-2217
aler	-2218
apos	-2219
delt	-2220
dies	-2221
nung	-2222
stad	-2223
zaun	-2224
▁wel	-2225
uppen	-2226
ängen	-2227
▁bewe	-2228
▁jahr	-2229
lossen	-2230
▁redet	-2231
brunnen	-2232
▁frisch	-2233
▁marsch	-2234
▁schuhe	-2235
▁seines	-2236
▁zimmer	-2237
erleader	-2238
schaften	-2239
▁braunem	-2240
▁fliegen	-2241
▁tanktop	-2242
▁aussieht	-2243
▁leuchtend	-2244
▁weibliche	-2245
▁oberteilen	-2246
▁seifenblasen	-2247
ce	-2248
om	-2249
fla	-2250
one	-2251
urt	-2252
ähn	-2253
▁at	-2254
▁lö	-2255
lett	-2256
▁fil	-2257
enden	-2258
fahrt	-2259
fährt	-2260
▁ecke	-2261
▁loch	-2262
▁tour	-2263
rillen	-2264
untain	-2265
▁jongl	-2266
▁khaki	-2267
▁kocht	-2268
▁küsst	-2269
▁stirn	-2270
▁tramp	-2271
▁schüler	-2272
▁tischen	-2273
▁bekleide	-2274
▁mountain	-2275
▁schlange	-2276
▁schnauze	-2277
▁verschiedenen	-2278
gn	-2279
pe	-2280
äck	-2281
▁ki	-2282
▁ol	-2283
afel	-2284
dach	-2285
ello	-2286
flug	-2287
igur	-2288
illt	-2289
terr	-2290
▁bis	-2291
hosen	-2292
▁kahl	-2293
▁plat	-2294
▁spaß	-2295
▁vert	-2296
shirts	-2297
strukt	-2298
▁bäume	-2299
▁inter	-2300
▁kopft	-2301
▁recht	-2302
▁schul	-2303
▁teich	-2304
▁bemalt	-2305
▁elektr	-2306
▁gerüst	-2307
▁geschm	-2308
köpfiger	-2309
▁entfern	-2310
▁hindern	-2311
▁kranken	-2312
▁schönen	-2313
▁stadion	-2314
▁teppich	-2315
▁tochter	-2316
▁ausgestre	-2317
▁schultern	-2318
▁spielfeld	-2319
▁landschaft	-2320
▁wunderschö	-2321
▁mountainbik	-2322
▁rennstrecke	-2323
veranstaltung	-2324
▁farbenfrohen	-2325
▁lilafarbenen	-2326
▁skateboarder	-2327
▁fahrradfahrer	-2328
▁footballspieler	-2329
▁grasbewachsenen	-2330
ki	-2331
po	-2332
wa	-2333
cro	-2334
fte	-2335
pen	-2336
▁di	-2337
▁du	-2338
▁vö	-2339
enkt	-2340
ießt	-2341
lauf	-2342
olin	-2343
zene	-2344
▁flü	-2345
▁kai	-2346
dient	-2347
eilen	-2348
kappe	-2349
öpfen	-2350
▁hula	-2351
▁laub	-2352
▁schä	-2353
halten	-2354
igkeit	-2355
▁geige	-2356
▁tasse	-2357
▁zeich	-2358
mädchen	-2359
▁golden	-2360
▁haufen	-2361
▁kaffee	-2362
▁karate	-2363
▁kirche	-2364
▁kunden	-2365
▁orient	-2366
farbener	-2367
schaukel	-2368
▁flasche	-2369
▁verkauf	-2370
schwarzer	-2371
▁luftball	-2372
▁geschäfts	-2373
▁lastwagen	-2374
bauarbeiter	-2375
▁männlicher	-2376
▁gepflasterten	-2377
da	-2378
hö	-2379
üs	-2380
bad	-2381
hei	-2382
prü	-2383
unk	-2384
urg	-2385
▁zä	-2386
allt	-2387
alto	-2388
anda	-2389
wärt	-2390
▁dir	-2391
ammer	-2392
armen	-2393
bewer	-2394
bogen	-2395
ernen	-2396
gerät	-2397
stadt	-2398
stern	-2399
▁eish	-2400
▁soft	-2401
sprung	-2402
▁kappe	-2403
▁küste	-2404
▁schuh	-2405
▁stroh	-2406
▁aufger	-2407
▁balkon	-2408
▁hellen	-2409
▁hunden	-2410
▁meeres	-2411
▁objekt	-2412
igkeiten	-2413
oberteil	-2414
▁bedient	-2415
▁schnell	-2416
▁umarmen	-2417
▁freunden	-2418
▁oriental	-2419
▁parkbank	-2420
▁schaufel	-2421
▁asiatisch	-2422
▁schaukelt	-2423
▁unterwegs	-2424
▁aussehende	-2425
▁geschlossen	-2426
▁gegnerischen	-2427
fr	-2428
bus	-2429
kop	-2430
aren	-2431
ehrt	-2432
ffer	-2433
iern	-2434
ment	-2435
mmer	-2436
test	-2437
▁nur	-2438
▁prä	-2439
▁ruh	-2440
▁stö	-2441
licht	-2442
▁hang	-2443
▁mahl	-2444
▁wind	-2445
dieser	-2446
sstand	-2447
▁abend	-2448
▁blatt	-2449
▁damit	-2450
▁gasse	-2451
▁katze	-2452
▁namen	-2453
▁pickn	-2454
▁staub	-2455
zeichen	-2456
▁grauer	-2457
▁helmen	-2458
▁hängen	-2459
▁sachen	-2460
▁schnur	-2461
▁skater	-2462
▁steine	-2463
künstler	-2464
▁flaggen	-2465
▁schüssel	-2466
▁entspannt	-2467
▁gegenstän	-2468
▁kapuzenpu	-2469
▁trampolin	-2470
▁violetten	-2471
▁beleuchteten	-2472
▁schutzhelmen	-2473
▁schwimmbrille	-2474
du	-2475
err	-2476
pan	-2477
örm	-2478
inen	-2479
tert	-2480
▁inl	-2481
▁kau	-2482
▁new	-2483
chern	-2484
musik	-2485
tisch	-2486
▁eins	-2487
▁holt	-2488
▁plan	-2489
▁stap	-2490
▁terr	-2491
▁tran	-2492
bewerb	-2493
hälter	-2494
ierter	-2495
zeugen	-2496
ändern	-2497
▁aufge	-2498
▁berge	-2499
▁hinab	-2500
▁hüpft	-2501
▁kreuz	-2502
▁maske	-2503
▁vergn	-2504
▁überf	-2505
▁bullen	-2506
▁einzel	-2507
▁fahnen	-2508
▁langem	-2509
▁schlaf	-2510
▁seiten	-2511
▁skiern	-2512
▁steigt	-2513
▁turner	-2514
▁gezogen	-2515
▁strecke	-2516
verkäufer	-2517
▁jongliert	-2518
▁kopfhörer	-2519
▁verwendet	-2520
▁springbrunnen	-2521
gs	-2522
wo	-2523
öl	-2524
▁;	-2525
ale	-2526
ard	-2527
bis	-2528
dio	-2529
kat	-2530
lli	-2531
orn	-2532
äst	-2533
üne	-2534
üte	-2535
arbe	-2536
hoop	-2537
land	-2538
sell	-2539
umpf	-2540
äten	-2541
▁tri	-2542
indet	-2543
lagen	-2544
maten	-2545
▁brün	-2546
▁couch	-2547
▁dekor	-2548
▁kauft	-2549
▁licht	-2550
▁links	-2551
▁schil	-2552
▁umzug	-2553
▁barfuß	-2554
▁klippe	-2555
▁mittel	-2556
▁rechts	-2557
richtung	-2558
▁dunkler	-2559
▁feldweg	-2560
▁schießt	-2561
▁softball	-2562
▁eishockey	-2563
▁lächelnder	-2564
▁reparieren	-2565
▁schaufenster	-2566
▁fotografieren	-2567
äl	-2568
gro	-2569
irr	-2570
pfl	-2571
blas	-2572
helm	-2573
händ	-2574
inge	-2575
zäun	-2576
ürde	-2577
▁erd	-2578
▁hel	-2579
baren	-2580
ement	-2581
gegen	-2582
hügel	-2583
ienen	-2584
ophon	-2585
osten	-2586
weise	-2587
zeigt	-2588
▁gefl	-2589
▁grim	-2590
▁prof	-2591
▁ruht	-2592
▁wurf	-2593
eister	-2594
ichtet	-2595
muster	-2596
stücke	-2597
unifor	-2598
utsche	-2599
wasser	-2600
▁bläst	-2601
▁brett	-2602
▁geöff	-2603
▁heben	-2604
▁hockt	-2605
▁stoff	-2606
▁wüste	-2607
stühlen	-2608
▁asiate	-2609
▁bilder	-2610
▁bücher	-2611
▁einsam	-2612
▁gesäum	-2613
▁grillt	-2614
▁ringen	-2615
▁schach	-2616
▁teller	-2617
▁anzügen	-2618
▁bekommt	-2619
▁berührt	-2620
▁geschen	-2621
▁projekt	-2622
▁veranda	-2623
▁violett	-2624
▁wandert	-2625
▁kopftuch	-2626
▁verfolgt	-2627
▁cowboyhut	-2628
▁schüttelt	-2629
▁fallschirm	-2630
▁hellblauen	-2631
▁aussehender	-2632
▁instrumenten	-2633
▁dunkelhäutige	-2634
yl	-2635
üm	-2636
age	-2637
aht	-2638
hil	-2639
▁sm	-2640
baum	-2641
elle	-2642
gelt	-2643
▁dis	-2644
▁per	-2645
▁reg	-2646
allen	-2647
ckten	-2648
eiben	-2649
eiter	-2650
ützen	-2651
▁nase	-2652
▁samm	-2653
▁tief	-2654
iertem	-2655
schlag	-2656
schuhe	-2657
▁schaf	-2658
▁spitz	-2659
▁beinen	-2660
▁linken	-2661
arbeiten	-2662
aufnahme	-2663
▁freunde	-2664
▁gitarri	-2665
▁protest	-2666
▁reinigt	-2667
▁vorüber	-2668
▁bestehen	-2669
▁mahlzeit	-2670
▁wettkampf	-2671
▁handtasche	-2672
▁instrumente	-2673
▁sicherheits	-2674
▁überfüllten	-2675
▁braunhaarige	-2676
▁geschlossenen	-2677
▁personengruppe	-2678
bä	-2679
ed	-2680
ku	-2681
kü	-2682
alb	-2683
don	-2684
fft	-2685
hlt	-2686
sur	-2687
▁no	-2688
alon	-2689
glas	-2690
schü	-2691
sent	-2692
▁frü	-2693
▁hüb	-2694
▁kön	-2695
eskop	-2696
etzen	-2697
sperr	-2698
▁amüs	-2699
▁auch	-2700
▁bach	-2701
▁erkl	-2702
▁york	-2703
▁üben	-2704
stehen	-2705
▁bauen	-2706
▁gerät	-2707
▁japan	-2708
▁salto	-2709
▁stark	-2710
▁umher	-2711
▁zähne	-2712
flasche	-2713
zentrum	-2714
▁diesem	-2715
▁gebiet	-2716
▁gucken	-2717
▁hauses	-2718
▁reiter	-2719
▁schlei	-2720
▁öffnet	-2721
schirmen	-2722
teleskop	-2723
▁asiatin	-2724
▁steigen	-2725
instrumen	-2726
▁felsigen	-2727
▁getränke	-2728
▁untersch	-2729
mannschaft	-2730
▁wasserfall	-2731
▁vorbeigehen	-2732
▁pinkfarbenem	-2733
▁traditioneller	-2734
öh	-2735
bel	-2736
füß	-2737
hle	-2738
bart	-2739
beln	-2740
onen	-2741
pfer	-2742
▁bre	-2743
▁mus	-2744
▁sau	-2745
feuer	-2746
hafen	-2747
hunde	-2748
opren	-2749
scher	-2750
▁fast	-2751
▁fert	-2752
▁fröh	-2753
▁gebl	-2754
▁kann	-2755
▁kerl	-2756
▁knie	-2757
▁weit	-2758
▁ziel	-2759
achter	-2760
denten	-2761
kommen	-2762
mantel	-2763
yboard	-2764
▁beige	-2765
▁brust	-2766
brillen	-2767
▁bedeck	-2768
▁befest	-2769
▁gewehr	-2770
▁küchen	-2771
▁taucht	-2772
▁tunnel	-2773
▁wäsche	-2774
▁wäscht	-2775
bereitet	-2776
▁aufblas	-2777
▁blätter	-2778
▁langärm	-2779
▁neopren	-2780
▁steinen	-2781
schwarzen	-2782
struktion	-2783
▁auftritt	-2784
▁sitzende	-2785
▁sportler	-2786
▁fahrräder	-2787
▁schneiden	-2788
▁verlassen	-2789
▁lederjacke	-2790
▁untersucht	-2791
▁winterkleidung	-2792
je	-2793
mt	-2794
bes	-2795
hol	-2796
isp	-2797
▁ur	-2798
eibt	-2799
stag	-2800
▁kuh	-2801
▁mon	-2802
▁ort	-2803
▁pal	-2804
▁übt	-2805
icker	-2806
ippen	-2807
linie	-2808
wärts	-2809
zeich	-2810
zeuge	-2811
änden	-2812
▁drit	-2813
▁mode	-2814
▁rett	-2815
▁ring	-2816
▁sees	-2817
▁tarn	-2818
▁tuch	-2819
▁wild	-2820
ickelt	-2821
schein	-2822
sieben	-2823
▁blond	-2824
▁geldb	-2825
▁gießt	-2826
▁kamer	-2827
▁kickt	-2828
▁kurve	-2829
▁teams	-2830
▁wurde	-2831
▁zunge	-2832
fahrern	-2833
station	-2834
▁allein	-2835
▁gelegt	-2836
▁gewand	-2837
▁kissen	-2838
▁vollen	-2839
▁eingang	-2840
▁nachdem	-2841
▁weitere	-2842
▁darunter	-2843
▁gestreif	-2844
▁schießen	-2845
▁terrasse	-2846
bekleidung	-2847
▁baumstamm	-2848
▁jahrmarkt	-2849
▁beieinander	-2850
▁cheerleader	-2851
▁hellbraunen	-2852
▁dunkelhaarige	-2853
▁fußgängerüber	-2854
dre	-2855
egt	-2856
leu	-2857
nes	-2858
sel	-2859
äbt	-2860
atto	-2861
halt	-2862
igam	-2863
ippt	-2864
keln	-2865
pfel	-2866
ugby	-2867
wett	-2868
ütte	-2869
▁bad	-2870
▁ban	-2871
▁dan	-2872
▁feu	-2873
▁nah	-2874
cross	-2875
stoff	-2876
▁bord	-2877
▁bunt	-2878
▁halb	-2879
▁hölz	-2880
▁vorn	-2881
aschen	-2882
ichten	-2883
nitten	-2884
stufen	-2885
▁bräut	-2886
▁lager	-2887
▁schot	-2888
▁schwe	-2889
fußball	-2890
kletter	-2891
▁barfüß	-2892
▁becher	-2893
▁bringt	-2894
▁gesich	-2895
▁helfen	-2896
▁hinaus	-2897
▁kommen	-2898
▁können	-2899
▁nassen	-2900
▁träger	-2901
testelle	-2902
▁asiaten	-2903
▁rasiert	-2904
▁taucher	-2905
▁geschenk	-2906
▁geworfen	-2907
▁konzentr	-2908
▁teleskop	-2909
▁bräutigam	-2910
▁hindernis	-2911
▁hinterher	-2912
▁rollstuhl	-2913
▁touristen	-2914
▁vollführt	-2915
▁ausrüstung	-2916
▁unterschied	-2917
▁amerikanische	-2918
ic	-2919
erv	-2920
hem	-2921
ker	-2922
min	-2923
rem	-2924
ymp	-2925
▁bm	-2926
▁rä	-2927
eilt	-2928
iere	-2929
jung	-2930
lege	-2931
▁abs	-2932
▁grö	-2933
▁heu	-2934
▁lan	-2935
aktor	-2936
chtet	-2937
einem	-2938
hilfe	-2939
kugel	-2940
mmert	-2941
änder	-2942
▁brei	-2943
▁lehr	-2944
▁nack	-2945
▁schr	-2946
haufen	-2947
▁akust	-2948
▁begut	-2949
▁besen	-2950
▁bunte	-2951
▁dreck	-2952
▁geben	-2953
▁matte	-2954
gewicht	-2955
händler	-2956
kleiner	-2957
▁angelt	-2958
▁feiern	-2959
▁gepäck	-2960
▁karren	-2961
▁karten	-2962
▁kochen	-2963
▁zement	-2964
▁gezeigt	-2965
▁gleitet	-2966
▁paddelt	-2967
▁präsent	-2968
▁rolltre	-2969
▁schreit	-2970
▁ärmello	-2971
▁überprü	-2972
▁benutzen	-2973
▁brünette	-2974
▁geschirr	-2975
▁keyboard	-2976
▁tätowier	-2977
▁sitzenden	-2978
▁sitzender	-2979
▁transport	-2980
▁waldgebiet	-2981
▁hellhäutiger	-2982
▁neoprenanzug	-2983
▁arbeitskleidung	-2984
▁straßenkünstler	-2985
eis	-2986
kan	-2987
öhn	-2988
▁fa	-2989
▁su	-2990
▁us	-2991
ance	-2992
asst	-2993
förm	-2994
grau	-2995
kate	-2996
ocks	-2997
unkt	-2998
älde	-2999
▁bef	-3000
▁blo	-3001
▁kab	-3002
▁mei	-3003
▁sel	-3004
durch	-3005
ltsam	-3006
neten	-3007
tform	-3008
trick	-3009
änken	-3010
▁abzu	-3011
▁anzu	-3012
▁aufs	-3013
▁begl	-3014
▁disk	-3015
▁moto	-3016
▁nass	-3017
▁verb	-3018
jungen	-3019
nehmen	-3020
säcken	-3021
▁farbe	-3022
▁feier	-3023
▁herab	-3024
▁kehrt	-3025
▁rugby	-3026
▁theke	-3027
chester	-3028
glieder	-3029
schnitt	-3030
zäunten	-3031
▁berges	-3032
▁bewegt	-3033
▁hundes	-3034
▁lehnen	-3035
▁leicht	-3036
▁modell	-3037
▁runden	-3038
▁schöne	-3039
▁spiels	-3040
▁vergnü	-3041
▁alleine	-3042
▁fischer	-3043
▁gruppen	-3044
▁mänteln	-3045
▁rechten	-3046
▁schnurr	-3047
▁schäfer	-3048
▁seltsam	-3049
▁trommel	-3050
▁entfernt	-3051
▁handtuch	-3052
▁flughafen	-3053
▁glücklich	-3054
▁motocross	-3055
▁passanten	-3056
▁schwimmer	-3057
▁turnhalle	-3058
▁verkleidet	-3059
▁ärmellosen	-3060
▁chinesischen	-3061
▁kapuzenpulli	-3062
▁konzentriert	-3063
▁tennisschläger	-3064
▁weihnachtsbaum	-3065
bla	-3066
eck	-3067
ete	-3068
lie	-3069
ole	-3070
rik	-3071
öte	-3072
▁rö	-3073
▁üb	-3074
feln	-3075
lern	-3076
onne	-3077
ückt	-3078
▁ang	-3079
▁bie	-3080
▁dau	-3081
▁fau	-3082
▁füt	-3083
▁häu	-3084
▁kla	-3085
▁not	-3086
asiat	-3087
benen	-3088
illen	-3089
ittel	-3090
onstr	-3091
rücke	-3092
statt	-3093
äsern	-3094
▁brot	-3095
▁oper	-3096
▁rast	-3097
▁serv	-3098
gerüst	-3099
strand	-3100
tasche	-3101
▁folgt	-3102
▁gräbt	-3103
▁jagen	-3104
▁jungs	-3105
▁lange	-3106
▁müllt	-3107
▁segel	-3108
▁tromp	-3109
spielen	-3110
▁ballon	-3111
▁fahrer	-3112
▁fläche	-3113
▁kalten	-3114
▁ketten	-3115
▁koffer	-3116
▁körper	-3117
▁lassen	-3118
▁namens	-3119
▁stapel	-3120
▁angelru	-3121
▁braunes	-3122
▁drachen	-3123
▁offenem	-3124
▁polizei	-3125
▁spazier	-3126
▁werbung	-3127
▁beschäft	-3128
▁entgegen	-3129
▁freizeit	-3130
▁jemanden	-3131
▁rettungs	-3132
▁skulptur	-3133
legestelle	-3134
▁befestigt	-3135
▁handstand	-3136
▁hochzeits	-3137
▁trainiert	-3138
▁lächelndes	-3139
▁rolltreppe	-3140
▁wohnzimmer	-3141
▁gegenstände	-3142
▁geschäftigen	-3143
▁hockeyspieler	-3144
▁weihnachtsmann	-3145
dy	-3146
ep	-3147
ama	-3148
ops	-3149
wen	-3150
▁ze	-3151
bern	-3152
foto	-3153
plat	-3154
renn	-3155
uckt	-3156
ässt	-3157
▁hau	-3158
▁med	-3159
▁oze	-3160
▁prü	-3161
▁pär	-3162
▁sen	-3163
affel	-3164
attoo	-3165
blick	-3166
eutel	-3167
hüter	-3168
salon	-3169
strei	-3170
szene	-3171
▁baut	-3172
▁blue	-3173
▁deut	-3174
▁gang	-3175
▁gass	-3176
▁klat	-3177
▁nied	-3178
▁topf	-3179
▁zahn	-3180
anlage	-3181
eltern	-3182
laufen	-3183
wegung	-3184
▁bewöl	-3185
▁figur	-3186
▁füßen	-3187
▁hafen	-3188
▁hocke	-3189
▁hören	-3190
▁ihres	-3191
▁kamel	-3192
▁kegel	-3193
▁knien	-3194
▁labor	-3195
▁olymp	-3196
▁schub	-3197
▁statt	-3198
▁weint	-3199
geboren	-3200
musiker	-3201
rutsche	-3202
▁beginn	-3203
▁bushal	-3204
▁daumen	-3205
▁decken	-3206
▁geblüm	-3207
▁herbst	-3208
▁hinein	-3209
▁joggen	-3210
▁nähert	-3211
▁pfütze	-3212
▁plakat	-3213
▁schiff	-3214
▁schwer	-3215
▁soldat	-3216
▁spitze	-3217
▁ballons	-3218
▁blondem	-3219
▁bringen	-3220
▁daneben	-3221
▁fischen	-3222
▁gelehnt	-3223
▁gemälde	-3224
▁pfosten	-3225
▁pärchen	-3226
▁speisen	-3227
▁steilen	-3228
▁trocken	-3229
▁komplett	-3230
▁mehrfarb	-3231
▁werkzeug	-3232
▁begeister	-3233
▁hölzernen	-3234
▁picknickt	-3235
▁schaufelt	-3236
▁stehenden	-3237
▁bildschirm	-3238
▁streichelt	-3239
▁trägerhemd	-3240
▁kunststücke	-3241
▁schäferhund	-3242
▁kahlköpfiger	-3243
▁mountainbike	-3244
▁baseballkappe	-3245
▁sonnenbrillen	-3246
▁bushaltestelle	-3247
ym	-3248
adl	-3249
are	-3250
neh	-3251
stä	-3252
tor	-3253
woh	-3254
äng	-3255
▁mi	-3256
anze	-3257
cket	-3258
hten	-3259
ksam	-3260
othe	-3261
piel	-3262
pool	-3263
reme	-3264
saal	-3265
samm	-3266
schm	-3267
seit	-3268
stür	-3269
▁bed	-3270
▁eur	-3271
▁lon	-3272
▁pit	-3273
▁ran	-3274
▁süß	-3275
▁ton	-3276
▁vie	-3277
ampen	-3278
erste	-3279
richt	-3280
rigen	-3281
schne	-3282
▁deck	-3283
▁kart	-3284
▁lock	-3285
▁mess	-3286
▁pier	-3287
▁sprü	-3288
arbeit	-3289
braune	-3290
dessen	-3291
dieses	-3292
eligen	-3293
fallen	-3294
stange	-3295
▁bauch	-3296
▁bespr	-3297
▁gassi	-3298
▁hürde	-3299
▁joggt	-3300
▁sechs	-3301
▁start	-3302
▁stier	-3303
▁zuhör	-3304
adlocks	-3305
merksam	-3306
reichen	-3307
uniform	-3308
zuschau	-3309
▁bewund	-3310
▁graben	-3311
▁hammer	-3312
▁heißen	-3313
▁jockey	-3314
▁schwei	-3315
▁selbst	-3316
▁socken	-3317
▁teilen	-3318
▁öffent	-3319
haarigen	-3320
▁arbeits	-3321
▁geparkt	-3322
▁klavier	-3323
▁motorro	-3324
▁spritzt	-3325
▁treffen	-3326
radfahrer	-3327
▁behälter	-3328
▁goldenen	-3329
▁jüngeren	-3330
▁scheinen	-3331
▁wandbild	-3332
▁zeichnet	-3333
instrument	-3334
volleyball	-3335
▁bahnsteig	-3336
▁graffitis	-3337
▁schmetter	-3338
▁skatepark	-3339
▁aufmerksam	-3340
▁dreadlocks	-3341
▁kopfhörern	-3342
▁steinmauer	-3343
▁videospiel	-3344
▁krankenhaus	-3345
▁motorrädern	-3346
▁restaurants	-3347
▁schmutzigen	-3348
▁schnurrbart	-3349
▁stadtstraße	-3350
▁wunderschönen	-3351
▁ausgestreckten	-3352
▁zuschauermenge	-3353
▁einkaufszentrum	-3354
ask	-3355
orf	-3356
urf	-3357
wir	-3358
▁ba	-3359
▁pe	-3360
▁sä	-3361
ages	-3362
ativ	-3363
dent	-3364
keit	-3365
klam	-3366
oben	-3367
üten	-3368
▁get	-3369
▁kri	-3370
▁kör	-3371
▁min	-3372
▁mop	-3373
▁tut	-3374
▁wol	-3375
ahmen	-3376
eimer	-3377
rampe	-3378
stock	-3379
teams	-3380
trakt	-3381
useum	-3382
wanne	-3383
▁aber	-3384
▁chor	-3385
▁eben	-3386
▁füße	-3387
▁gumm	-3388
▁heiß	-3389
▁jack	-3390
▁länd	-3391
▁neon	-3392
▁rede	-3393
▁stab	-3394
▁warn	-3395
gewöhn	-3396
reiche	-3397
schutz	-3398
statue	-3399
weißem	-3400
▁balls	-3401
▁brand	-3402
▁flüss	-3403
▁sandd	-3404
▁schle	-3405
▁strom	-3406
agieren	-3407
▁direkt	-3408
▁diskut	-3409
▁essens	-3410
▁kisten	-3411
▁nicker	-3412
▁passen	-3413
▁rudert	-3414
arbeitet	-3415
aschinen	-3416
▁bahnhof	-3417
▁brennen	-3418
▁fingern	-3419
▁geldbör	-3420
▁inlines	-3421
▁schwach	-3422
▁stellen	-3423
▁traktor	-3424
▁zeichen	-3425
▁älteres	-3426
▁gitarren	-3427
▁kreuzung	-3428
▁mädchens	-3429
bildschirm	-3430
▁einzelner	-3431
▁gesäumten	-3432
▁getränken	-3433
▁gitarrist	-3434
▁hinterhof	-3435
▁kletterer	-3436
▁kunstwerk	-3437
▁silbernen	-3438
▁trainings	-3439
▁bekleidung	-3440
▁neugeboren	-3441
▁nickerchen	-3442
▁wettbewerb	-3443
▁zusammenge	-3444
▁beschäftigt	-3445
▁bowlingbahn	-3446
▁luftballons	-3447
▁nähmaschine	-3448
▁vorbeifährt	-3449
▁anlegestelle	-3450
▁langhaariger	-3451
▁rosafarbenem	-3452
▁schutzbrille	-3453
▁baseballmütze	-3454
▁amerikanischen	-3455
▁menschengruppe	-3456
cl	-3457
ef	-3458
gi	-3459
ia	-3460
ban	-3461
bas	-3462
bem	-3463
bro	-3464
ian	-3465
ity	-3466
out	-3467
tag	-3468
▁bi	-3469
▁em	-3470
eier	-3471
ettr	-3472
gung	-3473
heir	-3474
oliz	-3475
ortr	-3476
rock	-3477
rohr	-3478
stet	-3479
öpfe	-3480
▁bat	-3481
▁boo	-3482
▁gür	-3483
▁hot	-3484
▁leg	-3485
▁piz	-3486
▁tab	-3487
anger	-3488
ausch	-3489
ballt	-3490
braun	-3491
cours	-3492
feren	-3493
ießen	-3494
kates	-3495
kette	-3496
maske	-3497
orgen	-3498
rückt	-3499
äften	-3500
▁bohr	-3501
▁fass	-3502
▁freu	-3503
▁herd	-3504
▁puck	-3505
▁span	-3506
▁verz	-3507
▁wach	-3508
▁zahl	-3509
eitung	-3510
etzten	-3511
hängen	-3512
träger	-3513
wohner	-3514
zeuger	-3515
▁anhat	-3516
▁arena	-3517
▁blume	-3518
▁dicht	-3519
▁dinge	-3520
▁hütte	-3521
▁klapp	-3522
▁natur	-3523
▁ruder	-3524
▁sicht	-3525
▁stamm	-3526
heirate	-3527
steigen	-3528
steinen	-3529
▁balken	-3530
▁bänken	-3531
▁hochge	-3532
▁mittag	-3533
▁runter	-3534
▁rädern	-3535
▁schule	-3536
▁strick	-3537
▁wänden	-3538
luftball	-3539
▁beladen	-3540
▁flausch	-3541
▁lachend	-3542
▁outfits	-3543
▁verteid	-3544
automaten	-3545
▁berühren	-3546
▁gehalten	-3547
▁indische	-3548
▁mithilfe	-3549
▁strohhut	-3550
▁trompete	-3551
▁amüsieren	-3552
▁angelrute	-3553
▁bedeckten	-3554
▁einkaufst	-3555
▁geblümten	-3556
▁gewässers	-3557
▁orchester	-3558
▁rennwagen	-3559
▁rollerbla	-3560
▁steinigen	-3561
▁violettem	-3562
▁bearbeitet	-3563
▁kunststoff	-3564
▁marschiert	-3565
▁rucksäcken	-3566
▁verheirate	-3567
konstruktion	-3568
▁afrikanische	-3569
▁aufblasbaren	-3570
▁bowlingkugel	-3571
▁schlagzeuger	-3572
▁afrikanischer	-3573
▁baseballspiel	-3574
▁klettergerüst	-3575
▁regenschirmen	-3576
ga	-3577
jo	-3578
ma	-3579
up	-3580
wä	-3581
als	-3582
chn	-3583
hou	-3584
kte	-3585
kun	-3586
mod	-3587
▁jo	-3588
alte	-3589
buch	-3590
dium	-3591
door	-3592
grün	-3593
iten	-3594
ität	-3595
ival	-3596
kopf	-3597
pack	-3598
räch	-3599
säge	-3600
zahl	-3601
ären	-3602
▁gar	-3603
▁kür	-3604
▁mög	-3605
▁plü	-3606
▁sow	-3607
▁spe	-3608
▁wür	-3609
draht	-3610
egten	-3611
eicht	-3612
eiger	-3613
einen	-3614
jeans	-3615
kolle	-3616
kunft	-3617
kunst	-3618
ohemd	-3619
othek	-3620
schwe	-3621
ucken	-3622
▁cafe	-3623
▁club	-3624
▁elef	-3625
▁fans	-3626
▁heim	-3627
▁herz	-3628
▁kaut	-3629
▁kies	-3630
▁lied	-3631
▁näch	-3632
▁stol	-3633
▁stür	-3634
▁teig	-3635
▁trau	-3636
▁trib	-3637
▁trop	-3638
▁will	-3639
chtung	-3640
kamera	-3641
outfit	-3642
seitig	-3643
treppe	-3644
vollen	-3645
ziehen	-3646
▁angeb	-3647
▁füllt	-3648
▁glatz	-3649
▁moped	-3650
▁noten	-3651
▁parkt	-3652
▁richt	-3653
▁stift	-3654
▁sucht	-3655
▁super	-3656
▁tafel	-3657
▁typen	-3658
izieren	-3659
richten	-3660
schmuck	-3661
schüler	-3662
▁bauern	-3663
▁becken	-3664
▁gepark	-3665
▁größer	-3666
▁kerzen	-3667
▁lippen	-3668
▁setzen	-3669
▁steckt	-3670
sammlung	-3671
▁flachen	-3672
▁grillen	-3673
▁kleider	-3674
▁outdoor	-3675
▁richtet	-3676
▁riesige	-3677
▁schlitt	-3678
ettrennen	-3679
zuschauer	-3680
▁demonstr	-3681
▁freiluft	-3682
▁gespräch	-3683
▁konferen	-3684
▁kopfüber	-3685
▁plastikt	-3686
▁rennauto	-3687
▁schirmen	-3688
▁schotter	-3689
▁schubkar	-3690
▁schwenkt	-3691
▁bluejeans	-3692
▁bordstein	-3693
▁kariertem	-3694
▁operation	-3695
▁plattform	-3696
▁studenten	-3697
▁wasserski	-3698
issenschaft	-3699
▁abendessen	-3700
▁bestehende	-3701
▁schwimmbad	-3702
▁flüssigkeit	-3703
▁fußballfeld	-3704
▁gegenseitig	-3705
▁schlafanzug	-3706
▁zeitschrift	-3707
▁dunkelblauen	-3708
▁mannschaften	-3709
▁rollerblades	-3710
fußballspieler	-3711
▁beigefarbenen	-3712
▁picknicktisch	-3713
▁straßenhändler	-3714
bu	-3715
fä	-3716
kä	-3717
pt	-3718
bli	-3719
dog	-3720
een	-3721
fri	-3722
hau	-3723
ieß	-3724
igh	-3725
kul	-3726
ott	-3727
pel	-3728
rok	-3729
une	-3730
utt	-3731
way	-3732
ütz	-3733
▁ra	-3734
burg	-3735
riff	-3736
seur	-3737
sitz	-3738
spre	-3739
trie	-3740
äser	-3741
▁akt	-3742
▁app	-3743
▁ast	-3744
▁dün	-3745
▁ged	-3746
▁kom	-3747
▁lim	-3748
▁mat	-3749
▁pel	-3750
▁pin	-3751
▁tal	-3752
▁ähn	-3753
essel	-3754
essen	-3755
itter	-3756
recht	-3757
waren	-3758
ämmer	-3759
▁acht	-3760
▁dazu	-3761
▁dorf	-3762
▁esel	-3763
▁fegt	-3764
▁hart	-3765
▁kalb	-3766
▁löff	-3767
▁noch	-3768
▁quad	-3769
▁robe	-3770
▁show	-3771
brücke	-3772
hockey	-3773
orange	-3774
werfer	-3775
▁beißt	-3776
▁bogen	-3777
▁dudel	-3778
▁eisen	-3779
▁erleu	-3780
▁fahne	-3781
▁fahrt	-3782
▁gespr	-3783
▁hilfe	-3784
▁malen	-3785
▁produ	-3786
▁vorne	-3787
artigen	-3788
ationen	-3789
kleines	-3790
konzert	-3791
köpfige	-3792
richtet	-3793
urtstag	-3794
▁altmod	-3795
▁bunter	-3796
▁eltern	-3797
▁feiert	-3798
▁fertig	-3799
▁findet	-3800
▁gepunk	-3801
▁kreide	-3802
▁lehrer	-3803
▁london	-3804
▁nieder	-3805
▁palmen	-3806
▁röcken	-3807
▁schlen	-3808
▁silhou	-3809
▁tauben	-3810
▁tricks	-3811
▁umhang	-3812
football	-3813
skulptur	-3814
springen	-3815
▁absperr	-3816
▁füttert	-3817
▁jüngere	-3818
▁paddeln	-3819
▁rauchen	-3820
▁schwert	-3821
▁wandern	-3822
▁brandung	-3823
▁grimasse	-3824
▁interess	-3825
▁offenbar	-3826
▁planscht	-3827
▁reinigen	-3828
▁sanddüne	-3829
▁schweißt	-3830
▁sängerin	-3831
▁turnerin	-3832
▁ungewöhn	-3833
basketball	-3834
▁bewölkten	-3835
▁geldbörse	-3836
▁schreiben	-3837
▁surfboard	-3838
instrumente	-3839
▁entspannen	-3840
▁geburtstag	-3841
▁geschäften	-3842
▁grasfläche	-3843
▁jeansjacke	-3844
▁sandstrand	-3845
▁sportwagen	-3846
▁trainieren	-3847
▁waschsalon	-3848
▁wettrennen	-3849
mannschaften	-3850
▁begutachtet	-3851
▁jugendliche	-3852
▁marschieren	-3853
▁süßigkeiten	-3854
▁untersuchen	-3855
▁farbenfroher	-3856
▁heißluftball	-3857
▁wissenschaft	-3858
▁feuerwehrmann	-3859
▁spielkleidung	-3860
▁wasserflasche	-3861
▁dunkelhaariger	-3862
▁frisbeescheibe	-3863
▁ä	-3864
amb	-3865
ble	-3866
ign	-3867
kal	-3868
nch	-3869
rot	-3870
stö	-3871
zuf	-3872
bert	-3873
eise	-3874
heim	-3875
iker	-3876
izin	-3877
kurs	-3878
trag	-3879
voll	-3880
wurf	-3881
zelt	-3882
äuft	-3883
▁pat	-3884
▁red	-3885
▁spü	-3886
ainer	-3887
alung	-3888
etzte	-3889
ffelt	-3890
figur	-3891
flekt	-3892
genen	-3893
kreuz	-3894
mitar	-3895
olgen	-3896
ommen	-3897
usses	-3898
▁bass	-3899
▁eisc	-3900
▁floß	-3901
▁flur	-3902
▁glat	-3903
▁high	-3904
▁insp	-3905
▁näht	-3906
▁prob	-3907
▁rohr	-3908
▁steu	-3909
arzwei	-3910
gebrei	-3911
henden	-3912
hinter	-3913
nehmer	-3914
sammen	-3915
shorts	-3916
studio	-3917
ternen	-3918
ussell	-3919
zenden	-3920
▁beine	-3921
▁bückt	-3922
▁engen	-3923
▁europ	-3924
▁flach	-3925
▁kompl	-3926
▁kugel	-3927
▁maler	-3928
▁ohren	-3929
▁piste	-3930
▁rauch	-3931
▁stufe	-3932
▁säugl	-3933
▁viell	-3934
▁vögel	-3935
agessen	-3936
▁bandan	-3937
▁baumes	-3938
▁dritte	-3939
▁einrad	-3940
▁faulen	-3941
▁herren	-3942
▁jubeln	-3943
▁kapuze	-3944
▁kontro	-3945
▁köpfen	-3946
▁marine	-3947
▁messer	-3948
▁moment	-3949
▁podium	-3950
▁reklam	-3951
▁saiten	-3952
▁seilen	-3953
▁sommer	-3954
▁treibt	-3955
▁wischt	-3956
bemalung	-3957
flugzeug	-3958
förmigen	-3959
geworfen	-3960
mitarbei	-3961
▁akustik	-3962
▁ballett	-3963
▁bewegen	-3964
▁büschen	-3965
▁gefüllt	-3966
▁kricket	-3967
▁sammelt	-3968
▁schmuck	-3969
▁stangen	-3970
▁theater	-3971
▁violine	-3972
▁waldweg	-3973
▁befahren	-3974
▁bekommen	-3975
▁festhält	-3976
▁flaschen	-3977
▁geöffnet	-3978
▁gleichen	-3979
▁maulkorb	-3980
▁stehende	-3981
▁torhüter	-3982
▁verlässt	-3983
mitglieder	-3984
▁ausgebrei	-3985
▁badewanne	-3986
▁beisammen	-3987
▁bespritzt	-3988
▁bewundert	-3989
▁elefanten	-3990
▁scheinbar	-3991
▁schildern	-3992
▁überprüft	-3993
nahaufnahme	-3994
▁fotografen	-3995
▁herunterge	-3996
▁motorräder	-3997
▁regenbogen	-3998
▁schubkarre	-3999
▁vielleicht	-4000
▁aufgestellt	-4001
▁diskutieren	-4002
▁klassenraum	-4003
▁motorroller	-4004
▁ziegelmauer	-4005
▁übergewicht	-4006
▁blumenmuster	-4007
▁eingezäunten	-4008
▁fahrgeschäft	-4009
▁orangefarbene	-4010
▁sportkleidung	-4011
▁teenageralter	-4012
▁afroamerikaner	-4013
▁basketballspiel	-4014
hm	-4015
pl	-4016
ail	-4017
akd	-4018
ari	-4019
dig	-4020
han	-4021
ial	-4022
ika	-4023
jek	-4024
ola	-4025
urm	-4026
ven	-4027
wel	-4028
wie	-4029
ymn	-4030
zin	-4031
äne	-4032
▁mu	-4033
▁ör	-4034
anke	-4035
arzt	-4036
back	-4037
bare	-4038
biet	-4039
eile	-4040
eist	-4041
eman	-4042
ernt	-4043
flie	-4044
hlet	-4045
höri	-4046
ielt	-4047
ikul	-4048
kann	-4049
putz	-4050
ufer	-4051
wich	-4052
▁ans	-4053
▁fal	-4054
▁fit	-4055
▁ich	-4056
▁umr	-4057
▁web	-4058
abrik	-4059
block	-4060
boten	-4061
decke	-4062
dress	-4063
glied	-4064
ieben	-4065
inden	-4066
kante	-4067
karte	-4068
nimmt	-4069
onnen	-4070
orter	-4071
poliz	-4072
schul	-4073
▁bike	-4074
▁camp	-4075
▁chin	-4076
▁gymn	-4077
▁irok	-4078
▁kids	-4079
▁kran	-4080
▁mark	-4081
▁neue	-4082
▁töpf	-4083
▁türk	-4084
▁webt	-4085
▁zuge	-4086
apelle	-4087
balltr	-4088
ession	-4089
iertes	-4090
mutter	-4091
schaut	-4092
wander	-4093
wäsche	-4094
zeitig	-4095
▁bibli	-4096
▁boots	-4097
▁graue	-4098
▁kiste	-4099
▁leger	-4100
▁profi	-4101
▁rande	-4102
▁rosar	-4103
einwand	-4104
▁achter	-4105
▁breakd	-4106
▁bühnen	-4107
▁clowns	-4108
▁fallen	-4109
▁fernse	-4110
▁geschw	-4111
▁hotdog	-4112
▁landet	-4113
▁locken	-4114
▁löffel	-4115
▁museum	-4116
▁obdach	-4117
▁poster	-4118
▁ringer	-4119
▁welpen	-4120
▁wendet	-4121
▁zöpfen	-4122
gebäudes	-4123
gelassen	-4124
geländer	-4125
kostümen	-4126
ämmerung	-4127
▁attrakt	-4128
▁bandana	-4129
▁beginnt	-4130
▁drinnen	-4131
▁greifen	-4132
▁gymnast	-4133
▁häusern	-4134
▁kameras	-4135
▁maschen	-4136
▁reflekt	-4137
▁ruhigen	-4138
▁starren	-4139
▁tablett	-4140
spielerin	-4141
spielzeug	-4142
▁aussicht	-4143
▁ballerin	-4144
▁blättern	-4145
▁einsamer	-4146
▁elektron	-4147
▁fahrrads	-4148
▁farbigen	-4149
▁fernglas	-4150
▁gestikul	-4151
▁hindurch	-4152
▁irokesen	-4153
▁lockigen	-4154
▁nächsten	-4155
▁schieben	-4156
▁streifen	-4157
▁trommeln	-4158
▁verdeckt	-4159
▁dudelsack	-4160
▁gewändern	-4161
▁grimassen	-4162
▁radrennen	-4163
▁schaufeln	-4164
▁stirnband	-4165
▁teilweise	-4166
geschnitten	-4167
mitarbeiter	-4168
▁aufführung	-4169
▁bibliothek	-4170
▁innenstadt	-4171
▁ländlichen	-4172
▁marktplatz	-4173
▁schwarzwei	-4174
▁silhouette	-4175
▁städtische	-4176
▁vorbeigeht	-4177
▁zubereitet	-4178
▁aussehenden	-4179
▁entlanggeht	-4180
▁gestreiftes	-4181
▁mittagessen	-4182
▁rosafarbene	-4183
▁rothaariges	-4184
▁verkleidete	-4185
▁gleichzeitig	-4186
▁maschendraht	-4187
▁neugeborenes	-4188
▁sonnenschirm	-4189
▁glatzköpfiger	-4190
▁khakifarbenen	-4191
▁akustikgitarre	-4192
▁reifenschaukel	-4193
▁rettungswesten	-4194
▁tennisspielerin	-4195
go	-4196
zw	-4197
öt	-4198
ami	-4199
ane	-4200
asp	-4201
hes	-4202
irl	-4203
itr	-4204
ood	-4205
ool	-4206
opf	-4207
ski	-4208
weh	-4209
▁mc	-4210
▁py	-4211
▁sw	-4212
▁sy	-4213
abel	-4214
bett	-4215
biss	-4216
blät	-4217
dian	-4218
emon	-4219
ersp	-4220
etze	-4221
länd	-4222
mern	-4223
ofon	-4224
otiv	-4225
paar	-4226
ustr	-4227
äste	-4228
▁ble	-4229
▁dri	-4230
▁erw	-4231
▁ess	-4232
▁neb	-4233
▁pil	-4234
▁trü	-4235
▁tun	-4236
▁uhr	-4237
anner	-4238
deten	-4239
falls	-4240
gebil	-4241
haube	-4242
ichte	-4243
ivers	-4244
küche	-4245
llege	-4246
loser	-4247
ossen	-4248
racht	-4249
spark	-4250
sseln	-4251
stuch	-4252
werke	-4253
ündel	-4254
▁burg	-4255
▁fack	-4256
▁krab	-4257
▁rund	-4258
▁röhr	-4259
▁sack	-4260
▁sort	-4261
▁verd	-4262
▁wake	-4263
etafel	-4264
grauen	-4265
istole	-4266
kasten	-4267
lichem	-4268
liegen	-4269
menade	-4270
orträt	-4271
stisch	-4272
▁angem	-4273
▁asien	-4274
▁bevor	-4275
▁feder	-4276
▁flöte	-4277
▁hotel	-4278
▁karte	-4279
▁leckt	-4280
▁ozean	-4281
▁sowie	-4282
▁szene	-4283
▁trock	-4284
▁wange	-4285
▁abends	-4286
▁bilden	-4287
▁brauen	-4288
▁bällen	-4289
▁dieser	-4290
▁indian	-4291
▁jubelt	-4292
▁kindes	-4293
▁labork	-4294
▁liefer	-4295
▁mützen	-4296
▁rechte	-4297
▁sauber	-4298
▁stofft	-4299
▁stühle	-4300
▁tattoo	-4301
▁turban	-4302
angehöri	-4303
klettern	-4304
lichkeit	-4305
streifen	-4306
▁friseur	-4307
▁gebeugt	-4308
▁papiere	-4309
▁pfadfin	-4310
▁pitcher	-4311
▁stehend	-4312
▁tribüne	-4313
▁vortrag	-4314
▁wasserm	-4315
feuerwehr	-4316
▁eingesch	-4317
▁gemuster	-4318
▁golfball	-4319
▁halstuch	-4320
▁händchen	-4321
▁klatscht	-4322
▁pflaster	-4323
▁schilder	-4324
▁streicht	-4325
▁verkehrs	-4326
▁wassersp	-4327
asiatische	-4328
rennfahrer	-4329
wettbewerb	-4330
▁geparkten	-4331
▁gewickelt	-4332
▁gymnastik	-4333
▁handschuh	-4334
▁indischer	-4335
▁mülltonne	-4336
▁schaukeln	-4337
▁stehender	-4338
▁verkäufer	-4339
▁werkstatt	-4340
▁achterbahn	-4341
▁asiatinnen	-4342
▁badezimmer	-4343
▁kettensäge	-4344
▁luftballon	-4345
▁pferdeschw	-4346
▁radfahrern	-4347
▁ausgestellt	-4348
▁beleuchtung	-4349
▁langhaarige	-4350
▁olympischen	-4351
▁plastiktüte	-4352
▁strickmütze	-4353
▁versammlung	-4354
▁vorbereitet	-4355
▁gestikuliert	-4356
▁inlineskates	-4357
▁rosafarbener	-4358
▁unbefestigte	-4359
▁verheiratetes	-4360
▁snowboardfahrer	-4361
bh	-4362
bü	-4363
if	-4364
pa	-4365
äg	-4366
bal	-4367
feu	-4368
flü	-4369
häu	-4370
krä	-4371
mal	-4372
oga	-4373
org	-4374
reg	-4375
rob	-4376
sau	-4377
sse	-4378
urn	-4379
vie	-4380
aush	-4381
elbe	-4382
eten	-4383
ital	-4384
ollt	-4385
peri	-4386
rauß	-4387
show	-4388
tens	-4389
ungl	-4390
weis	-4391
zten	-4392
ände	-4393
▁ant	-4394
▁asp	-4395
▁bam	-4396
▁bro	-4397
▁erz	-4398
▁kie	-4399
▁kit	-4400
▁los	-4401
▁mün	-4402
▁rik	-4403
▁san	-4404
▁usa	-4405
ambur	-4406
anien	-4407
arter	-4408
donal	-4409
enken	-4410
feier	-4411
llern	-4412
läuft	-4413
nisse	-4414
orden	-4415
ummel	-4416
unken	-4417
▁bill	-4418
▁eisw	-4419
▁film	-4420
▁glän	-4421
▁hüte	-4422
▁kell	-4423
▁knei	-4424
▁lass	-4425
▁rost	-4426
▁tank	-4427
▁ungl	-4428
▁wahr	-4429
▁yoga	-4430
balken	-4431
blauem	-4432
eignis	-4433
hammer	-4434
ienten	-4435
igiert	-4436
iziert	-4437
junger	-4438
kelten	-4439
kuchen	-4440
kunden	-4441
reiter	-4442
rücken	-4443
stüten	-4444
wehrau	-4445
üffelt	-4446
▁altes	-4447
▁banjo	-4448
▁beach	-4449
▁bräun	-4450
▁bälle	-4451
▁cello	-4452
▁draht	-4453
▁engel	-4454
▁kette	-4455
▁köpfe	-4456
▁legen	-4457
▁lernt	-4458
▁linie	-4459
▁nebel	-4460
▁packt	-4461
▁prüft	-4462
▁pudel	-4463
▁snack	-4464
▁stern	-4465
▁türen	-4466
▁watet	-4467
▁welpe	-4468
brocken	-4469
eingang	-4470
fahrrad	-4471
gestrei	-4472
hobenen	-4473
ständer	-4474
öffnung	-4475
▁anweis	-4476
▁bahngl	-4477
▁bambus	-4478
▁besitz	-4479
▁blasen	-4480
▁booten	-4481
▁fabrik	-4482
▁fänger	-4483
▁hocker	-4484
▁inform	-4485
▁inline	-4486
▁katzen	-4487
▁manche	-4488
▁putzen	-4489
▁riksch	-4490
▁schafe	-4491
▁schuss	-4492
▁suchen	-4493
▁säulen	-4494
▁türkis	-4495
▁verste	-4496
▁werfer	-4497
bereiten	-4498
gebunden	-4499
schlauch	-4500
wegungen	-4501
▁ansieht	-4502
▁asphalt	-4503
▁bedruck	-4504
▁dreirad	-4505
▁dunklem	-4506
▁fliesen	-4507
▁gehende	-4508
▁geräten	-4509
▁haltung	-4510
▁heraush	-4511
▁hinterb	-4512
▁jackett	-4513
▁kellner	-4514
▁knöpfen	-4515
▁kümmert	-4516
▁mcdonal	-4517
▁medizin	-4518
▁trainer	-4519
▁treiben	-4520
▁waschen	-4521
▁wirbelt	-4522
bedeckten	-4523
gungspark	-4524
schriften	-4525
▁anhänger	-4526
▁aufgerei	-4527
▁aufnahme	-4528
▁bemalten	-4529
▁bewegung	-4530
▁fischern	-4531
▁freundin	-4532
▁produkte	-4533
▁sandigen	-4534
▁sandwich	-4535
▁schleife	-4536
▁schnitzt	-4537
▁tänzerin	-4538
sellschaft	-4539
zahlreiche	-4540
▁angeboten	-4541
▁barfüßige	-4542
▁begleitet	-4543
▁betonwand	-4544
▁computern	-4545
▁geschmink	-4546
▁konferenz	-4547
▁rückwärts	-4548
▁schwingen	-4549
▁schüsseln	-4550
▁wassermel	-4551
cheerleader	-4552
▁aneinander	-4553
▁breakdance	-4554
▁gesichtern	-4555
▁geöffneten	-4556
▁glänzenden	-4557
▁kunstwerke	-4558
instrumenten	-4559
▁badeanzügen	-4560
▁gepunkteten	-4561
▁gestreifter	-4562
▁herumstehen	-4563
▁lieferwagen	-4564
▁schneeanzug	-4565
▁spaziergang	-4566
▁spielerisch	-4567
▁sprungbrett	-4568
▁treppenhaus	-4569
▁tätowierung	-4570
▁verschneite	-4571
▁waschbecken	-4572
▁reflektieren	-4573
▁schwimmweste	-4574
▁tarnkleidung	-4575
▁mountainbiker	-4576
▁treppenstufen	-4577
▁tätowierungen	-4578
▁heißluftballon	-4579
▁schwarzhaarige	-4580
▁traditionellen	-4581
▁trainingsanzug	-4582
▁feuerwehrmänner	-4583
▁vergnügungspark	-4584
ca	-4585
io	-4586
kn	-4587
ks	-4588
vi	-4589
vr	-4590
za	-4591
üd	-4592
ace	-4593
bie	-4594
hin	-4595
ims	-4596
iss	-4597
kör	-4598
ous	-4599
ube	-4600
uth	-4601
▁dj	-4602
▁lu	-4603
▁sl	-4604
atet	-4605
dler	-4606
elig	-4607
ennt	-4608
fers	-4609
fert	-4610
ffiz	-4611
heke	-4612
hier	-4613
itor	-4614
ktem	-4615
legt	-4616
llig	-4617
lust	-4618
lzen	-4619
mitt	-4620
pfad	-4621
rill	-4622
ring	-4623
rosa	-4624
stap	-4625
tour	-4626
uder	-4627
vent	-4628
vers	-4629
weil	-4630
zune	-4631
ützt	-4632
▁con	-4633
▁del	-4634
▁ern	-4635
▁ord	-4636
▁pon	-4637
▁sat	-4638
▁spä	-4639
▁tee	-4640
▁vol	-4641
▁wen	-4642
▁zyl	-4643
agger	-4644
allow	-4645
annen	-4646
endes	-4647
heben	-4648
iefel	-4649
inten	-4650
lafen	-4651
maler	-4652
mäher	-4653
sters	-4654
vater	-4655
▁arzt	-4656
▁auge	-4657
▁city	-4658
▁dock	-4659
▁hohe	-4660
▁home	-4661
▁horn	-4662
▁john	-4663
▁kast	-4664
▁klar	-4665
▁krat	-4666
▁legg	-4667
▁live	-4668
▁ofen	-4669
▁papp	-4670
▁pelz	-4671
▁post	-4672
▁smok	-4673
▁soll	-4674
▁verm	-4675
▁weil	-4676
▁woll	-4677
▁zebr	-4678
garten	-4679
graben	-4680
imming	-4681
klippe	-4682
objekt	-4683
schiff	-4684
spannt	-4685
tänzer	-4686
weißes	-4687
werker	-4688
ärlich	-4689
▁akrob	-4690
▁apfel	-4691
▁aufzu	-4692
▁babys	-4693
▁diese	-4694
▁fecht	-4695
▁gesen	-4696
▁helme	-4697
▁hoher	-4698
▁indem	-4699
▁inner	-4700
▁kante	-4701
▁kerle	-4702
▁knall	-4703
▁liege	-4704
▁möbel	-4705
▁netze	-4706
▁objek	-4707
▁ruhen	-4708
▁stahl	-4709
▁stolz	-4710
▁stunt	-4711
▁stößt	-4712
▁tiere	-4713
▁waffe	-4714
▁wette	-4715
▁ziell	-4716
▁übers	-4717
braunem	-4718
bändern	-4719
gruppen	-4720
projekt	-4721
schauen	-4722
springt	-4723
straßen	-4724
während	-4725
▁banner	-4726
▁bietet	-4727
▁drückt	-4728
▁erzeug	-4729
▁freude	-4730
▁gürtel	-4731
▁karton	-4732
▁kragen	-4733
▁kürbis	-4734
▁muster	-4735
▁oberen	-4736
▁passag	-4737
▁perlen	-4738
▁rahmen	-4739
▁rudern	-4740
▁schaum	-4741
▁shirts	-4742
▁stöcke	-4743
▁surfen	-4744
▁töpfer	-4745
▁zucker	-4746
behälter	-4747
farbigen	-4748
genommen	-4749
kollegen	-4750
motorrad	-4751
periment	-4752
spielern	-4753
sprecher	-4754
unkelten	-4755
wehrauto	-4756
zunehmen	-4757
▁besteht	-4758
▁blocken	-4759
▁college	-4760
▁cowboys	-4761
▁einheim	-4762
▁felsvor	-4763
▁früchte	-4764
▁gemacht	-4765
▁gläsern	-4766
▁kaffeet	-4767
▁laptops	-4768
▁löschen	-4769
▁nachbar	-4770
▁oranger	-4771
▁porträt	-4772
▁sammeln	-4773
▁scheibe	-4774
▁schnapp	-4775
▁schwebt	-4776
▁stammes	-4777
▁strumpf	-4778
andschaft	-4779
arterback	-4780
einwohner	-4781
erwachsen	-4782
fußgänger	-4783
schwimmen	-4784
wettkampf	-4785
▁autobahn	-4786
▁eiscreme	-4787
▁gehender	-4788
▁holzbank	-4789
▁picknick	-4790
▁rutschen	-4791
▁schminkt	-4792
▁serviert	-4793
▁säugling	-4794
▁verteilt	-4795
▁webstuhl	-4796
▁zylinder	-4797
ansammlung	-4798
balltrikot	-4799
immingpool	-4800
▁ballerina	-4801
▁bekleidet	-4802
▁eisenbahn	-4803
▁erklimmen	-4804
▁gefüllten	-4805
▁karussell	-4806
▁kastanien	-4807
▁kleineren	-4808
▁möglicher	-4809
▁obststand	-4810
▁passenden	-4811
▁rollschuh	-4812
▁schütteln	-4813
▁seltsamen	-4814
▁verwenden	-4815
▁örtlichen	-4816
ausstellung	-4817
▁abgestellt	-4818
▁abgeworfen	-4819
▁bekleidete	-4820
▁brettspiel	-4821
▁fußgängern	-4822
▁geschminkt	-4823
▁gesprungen	-4824
▁männlichen	-4825
▁pfadfinder	-4826
▁schlagmann	-4827
▁teilnehmen	-4828
▁türöffnung	-4829
▁untergrund	-4830
▁bekleideter	-4831
▁flauschiger	-4832
▁geschnitten	-4833
▁hellhäutige	-4834
▁japanischen	-4835
▁laborkittel	-4836
▁leuchtenden	-4837
▁mitarbeiter	-4838
▁mittelalter	-4839
▁präsentiert	-4840
▁turnschuhen	-4841
▁vorderseite	-4842
▁wasserspren	-4843
▁fußballdress	-4844
▁gegenständen	-4845
▁geländewagen	-4846
▁pinkfarbener	-4847
▁braunhaariger	-4848
▁langärmeligen	-4849
▁lebensmitteln	-4850
▁orientalische	-4851
▁pferdeschwanz	-4852
▁transportiert	-4853
▁wasserrutsche	-4854
▁einkaufstasche	-4855
▁marathonläufer	-4856
▁möglicherweise	-4857
▁silberfarbenen	-4858
▁beachvolleyball	-4859
ee	-4860
id	-4861
ii	-4862
nä	-4863
zz	-4864
bür	-4865
fig	-4866
hel	-4867
how	-4868
hte	-4869
ike	-4870
mar	-4871
män	-4872
oss	-4873
ote	-4874
pla	-4875
por	-4876
ump	-4877
wol	-4878
äte	-4879
▁dü	-4880
▁nu	-4881
ache	-4882
arfe	-4883
arty	-4884
elte	-4885
emen	-4886
erer	-4887
esse	-4888
ffel	-4889
flip	-4890
gabe	-4891
getr	-4892
iene	-4893
ierc	-4894
iers	-4895
iner	-4896
isse	-4897
llie	-4898
mpft	-4899
nchr	-4900
netz	-4901
odie	-4902
raft	-4903
reis	-4904
rift	-4905
sold	-4906
stor	-4907
ücke	-4908
▁aqu	-4909
▁bon	-4910
▁end	-4911
▁hab	-4912
▁hor	-4913
▁lau	-4914
▁lin	-4915
▁mod	-4916
▁pir	-4917
▁rie	-4918
▁sub	-4919
▁tie	-4920
▁tim	-4921
▁uns	-4922
asken	-4923
bchen	-4924
braut	-4925
chsen	-4926
chtem	-4927
derby	-4928
digen	-4929
front	-4930
hause	-4931
hoben	-4932
iften	-4933
ilden	-4934
inner	-4935
ister	-4936
istor	-4937
lampe	-4938
mmern	-4939
motiv	-4940
offen	-4941
onder	-4942
pferd	-4943
puppe	-4944
raten	-4945
schil	-4946
stimm	-4947
wandt	-4948
▁aufw	-4949
▁bull	-4950
▁eier	-4951
▁einf	-4952
▁ente	-4953
▁fein	-4954
▁font	-4955
▁garn	-4956
▁grin	-4957
▁halt	-4958
▁jeep	-4959
▁kauf	-4960
▁kick	-4961
▁kilt	-4962
▁krie	-4963
▁kühl	-4964
▁lich	-4965
▁pull	-4966
▁rode	-4967
▁sieg	-4968
▁skil	-4969
▁tenn	-4970
▁toil	-4971
▁trot	-4972
▁turm	-4973
▁unge	-4974
▁warm	-4975
alerie	-4976
becher	-4977
blickt	-4978
bäumen	-4979
bürste	-4980
crosse	-4981
emonie	-4982
feuert	-4983
gelegt	-4984
gitter	-4985
großer	-4986
iedens	-4987
ierung	-4988
ischem	-4989
jacken	-4990
kräfte	-4991
mensch	-4992
nummer	-4993
rechen	-4994
reicht	-4995
sauger	-4996
trikot	-4997
äumten	-4998
üchern	-4999
▁bewal	-5000
▁block	-5001
▁board	-5002
▁deren	-5003
▁drink	-5004
▁filmt	-5005
▁formt	-5006
▁gehör	-5007
▁geste	-5008
▁gummi	-5009
▁herrn	-5010
▁jeder	-5011
▁kanad	-5012
▁kasse	-5013
▁kurze	-5014
▁lasso	-5015
▁ließt	-5016
▁paare	-5017
▁pfeil	-5018
▁puppe	-5019
▁sprüh	-5020
▁sumpf	-5021
▁säule	-5022
ckenden	-5023
gläsern	-5024
ierende	-5025
steiger	-5026
trägern	-5027
viertel	-5028
▁aufzug	-5029
▁besuch	-5030
▁bootes	-5031
▁bruder	-5032
▁eimern	-5033
▁erhält	-5034
▁fischt	-5035
▁frisur	-5036
▁hallen	-5037
▁histor	-5038
▁hochzu	-5039
▁jeweil	-5040
▁kauert	-5041
▁klasse	-5042
▁kratzt	-5043
▁kurzem	-5044
▁körben	-5045
▁lampen	-5046
▁leucht	-5047
▁mischt	-5048
▁morgen	-5049
▁nasser	-5050
▁partie	-5051
▁redner	-5052
▁regner	-5053
▁rollen	-5054
▁schutt	-5055
▁synchr	-5056
▁tracht	-5057
▁trifft	-5058
▁unfall	-5059
▁wolken	-5060
▁ärmell	-5061
gebildet	-5062
schlagen	-5063
schüssel	-5064
springer	-5065
▁akrobat	-5066
▁bildern	-5067
▁einsatz	-5068
▁fremden	-5069
▁gefolgt	-5070
▁gesehen	-5071
▁gleisen	-5072
▁kostüme	-5073
▁meisten	-5074
▁pflanze	-5075
▁plüscht	-5076
▁rikscha	-5077
▁schneit	-5078
▁schrift	-5079
▁stelzen	-5080
▁strands	-5081
▁stöcken	-5082
▁tomaten	-5083
▁unorden	-5084
▁überall	-5085
studenten	-5086
uniformen	-5087
zeichnung	-5088
▁amüsiert	-5089
▁erdhügel	-5090
▁friedens	-5091
▁fröhlich	-5092
▁größeren	-5093
▁herkunft	-5094
▁holzzaun	-5095
▁jüngerer	-5096
▁lacrosse	-5097
▁laternen	-5098
▁leggings	-5099
▁leinwand	-5100
▁overalls	-5101
▁rücksitz	-5102
▁spritzen	-5103
▁spärlich	-5104
▁strecken	-5105
▁vergnügt	-5106
landschaft	-5107
▁aufgeregt	-5108
▁bestellen	-5109
▁burgunder	-5110
▁dämmerung	-5111
▁ebenfalls	-5112
▁einkaufen	-5113
▁erreichen	-5114
▁halskette	-5115
▁holzboden	-5116
▁kleidungs	-5117
▁liegenden	-5118
▁maschinen	-5119
▁mülleimer	-5120
▁niedrigen	-5121
▁rückseite	-5122
▁schaulust	-5123
▁staubigen	-5124
▁streichen	-5125
▁verbunden	-5126
▁zeremonie	-5127
▁ziellinie	-5128
▁abgebildet	-5129
▁angebracht	-5130
▁aufgereiht	-5131
▁entfernung	-5132
▁fliegenden	-5133
▁handschuhe	-5134
▁klappstuhl	-5135
▁lagerfeuer	-5136
▁landstraße	-5137
▁lächelnden	-5138
▁motorhaube	-5139
▁männliches	-5140
▁richtungen	-5141
▁stromschne	-5142
▁ziegelwand	-5143
▁ausstellung	-5144
▁bauarbeiten	-5145
▁bergsteiger	-5146
▁erzeugnisse	-5147
▁essensstand	-5148
▁fahrradhelm	-5149
▁gitarristen	-5150
▁kleinkinder	-5151
▁obdachloser	-5152
▁unterwäsche	-5153
▁vorrichtung	-5154
▁blondhaarige	-5155
▁festgebunden	-5156
▁freizeitpark	-5157
▁jugendlichen	-5158
▁krankenschwe	-5159
▁präsentation	-5160
▁regnerischen	-5161
▁schlauchboot	-5162
▁swimmingpool	-5163
▁unterrichtet	-5164
▁wunderschöne	-5165
▁afrikanischen	-5166
▁eingeschlafen	-5167
▁schneeschuhen	-5168
▁ziegelsteinen	-5169
▁ungewöhnlichen	-5170
▁unordentlichen	-5171
▁öffentlichkeit	-5172
▁übergewichtiger	-5173
iö	-5174
ju	-5175
mö	-5176
oo	-5177
ra	-5178
ata	-5179
car	-5180
cre	-5181
enk	-5182
frü	-5183
ieb	-5184
inz	-5185
ish	-5186
kas	-5187
kla	-5188
kle	-5189
les	-5190
mon	-5191
rig	-5192
set	-5193
tür	-5194
uhr	-5195
yer	-5196
üge	-5197
▁hy	-5198
amte	-5199
anen	-5200
baby	-5201
chan	-5202
club	-5203
cont	-5204
dose	-5205
dukt	-5206
eink	-5207
enen	-5208
fält	-5209
hack	-5210
hirt	-5211
hoch	-5212
holz	-5213
horn	-5214
inos	-5215
ipfl	-5216
laub	-5217
mart	-5218
nach	-5219
okol	-5220
olen	-5221
schr	-5222
▁bzw	-5223
▁dig	-5224
▁elm	-5225
▁eng	-5226
▁fas	-5227
▁gla	-5228
▁mel	-5229
▁pop	-5230
▁tem	-5231
▁top	-5232
adung	-5233
affen	-5234
ammen	-5235
armon	-5236
auten	-5237
bbelt	-5238
blase	-5239
bühne	-5240
dreht	-5241
ehren	-5242
gaben	-5243
gramm	-5244
izont	-5245
kohol	-5246
mitte	-5247
phone	-5248
schel	-5249
schür	-5250
stall	-5251
stift	-5252
süber	-5253
zieht	-5254
ärmen	-5255
ündet	-5256
▁beru	-5257
▁blas	-5258
▁dunk	-5259
▁erhö	-5260
▁flip	-5261
▁förm	-5262
▁gedr	-5263
▁gefr	-5264
▁hawa	-5265
▁komm	-5266
▁lack	-5267
▁lade	-5268
▁laut	-5269
▁mäht	-5270
▁münz	-5271
▁polo	-5272
▁punk	-5273
▁zitr	-5274
bällen	-5275
eligiö	-5276
fernen	-5277
gelber	-5278
großen	-5279
klasse	-5280
leiter	-5281
mittag	-5282
mützen	-5283
ochten	-5284
putzer	-5285
school	-5286
tennis	-5287
tunnel	-5288
werfen	-5289
änkten	-5290
▁akten	-5291
▁ampel	-5292
▁auszu	-5293
▁biker	-5294
▁blech	-5295
▁busch	-5296
▁china	-5297
▁daran	-5298
▁darin	-5299
▁fahrg	-5300
▁fasst	-5301
▁gabel	-5302
▁haupt	-5303
▁hohem	-5304
▁hohes	-5305
▁holen	-5306
▁karto	-5307
▁kraft	-5308
▁künst	-5309
▁lampe	-5310
▁lokal	-5311
▁moder	-5312
▁notiz	-5313
▁nächt	-5314
▁peace	-5315
▁pizza	-5316
▁plate	-5317
▁pullo	-5318
▁röhre	-5319
▁smart	-5320
▁speer	-5321
▁spinn	-5322
▁tages	-5323
▁trink	-5324
▁türki	-5325
▁verbr	-5326
▁würde	-5327
▁zauns	-5328
ansicht	-5329
anzeige	-5330
bietung	-5331
dachten	-5332
ipflops	-5333
isplatz	-5334
schluss	-5335
verkehr	-5336
werbung	-5337
▁bildes	-5338
▁bindet	-5339
▁diesen	-5340
▁fische	-5341
▁folgen	-5342
▁füllen	-5343
▁hallow	-5344
▁hambur	-5345
▁heller	-5346
▁hervor	-5347
▁hoodie	-5348
▁klaren	-5349
▁kneipe	-5350
▁muskul	-5351
▁platte	-5352
▁reihen	-5353
▁sattel	-5354
▁sessel	-5355
▁speise	-5356
▁stativ	-5357
▁steile	-5358
▁stürzt	-5359
▁völlig	-5360
▁warmen	-5361
▁wieder	-5362
▁öffnen	-5363
bewegung	-5364
festival	-5365
flaschen	-5366
klettert	-5367
kommenen	-5368
soldaten	-5369
struktur	-5370
▁alkohol	-5371
▁anhaben	-5372
▁besucht	-5373
▁brillen	-5374
▁camping	-5375
▁dritten	-5376
▁dritter	-5377
▁flusses	-5378
▁flügeln	-5379
▁gefleck	-5380
▁gericht	-5381
▁händler	-5382
▁hübsche	-5383
▁jeweils	-5384
▁kartons	-5385
▁pferder	-5386
▁platten	-5387
▁rennens	-5388
▁schokol	-5389
▁schützt	-5390
▁station	-5391
▁streich	-5392
▁student	-5393
▁umringt	-5394
▁unglück	-5395
▁univers	-5396
▁unteren	-5397
▁verschr	-5398
▁ähnlich	-5399
geschäfts	-5400
handschuh	-5401
indigkeit	-5402
schwimmer	-5403
ähnlichen	-5404
▁bedienen	-5405
▁betreten	-5406
▁dahinter	-5407
▁dribbelt	-5408
▁eiswagen	-5409
▁fenstern	-5410
▁gefallen	-5411
▁gefangen	-5412
▁gelangen	-5413
▁gespannt	-5414
▁herausge	-5415
▁horizont	-5416
▁hübschen	-5417
▁karohemd	-5418
▁langärml	-5419
▁laufbahn	-5420
▁mitglied	-5421
▁parcours	-5422
▁passiert	-5423
▁schürzen	-5424
▁schützen	-5425
▁seichten	-5426
▁spaziert	-5427
▁synchron	-5428
▁tagsüber	-5429
▁vorführt	-5430
▁weiteren	-5431
▁windhund	-5432
▁ärmellos	-5433
erwachsene	-5434
restaurant	-5435
scheinlich	-5436
▁entfernen	-5437
▁erhobenen	-5438
▁fahrzeuge	-5439
▁feuerwerk	-5440
▁flipflops	-5441
▁flussufer	-5442
▁formeller	-5443
▁getroffen	-5444
▁halloween	-5445
▁hamburger	-5446
▁patienten	-5447
▁pullunder	-5448
▁schachtel	-5449
▁segelboot	-5450
▁vergnügen	-5451
▁wakeboard	-5452
▁angehalten	-5453
▁attraktive	-5454
▁ausgezogen	-5455
▁bedruckten	-5456
▁befahrenen	-5457
▁beleuchtet	-5458
▁bewaldeten	-5459
▁darbietung	-5460
▁hindernisp	-5461
▁oberfläche	-5462
▁schlendert	-5463
▁tanzfläche	-5464
▁teilnehmer	-5465
▁tätowierte	-5466
▁verzierten	-5467
▁wildwasser	-5468
▁überprüfen	-5469
▁angezogener	-5470
▁aussehendes	-5471
▁bauernmarkt	-5472
▁felsbrocken	-5473
▁fischernetz	-5474
▁hockeyspiel	-5475
▁kopfschmuck	-5476
▁musikgruppe	-5477
▁nachrichten	-5478
▁protestiert	-5479
▁rasenfläche	-5480
▁regenmantel	-5481
▁schlammigen	-5482
▁skateboards	-5483
▁steintreppe	-5484
▁tennisplatz	-5485
▁ureinwohner	-5486
▁verteidiger	-5487
▁ausgestreckt	-5488
▁außenbereich	-5489
▁begeisterung	-5490
▁elektrischen	-5491
▁erleuchteten	-5492
▁heraushängen	-5493
▁hinterbeinen	-5494
▁konstruktion	-5495
▁namensschild	-5496
▁orientalisch	-5497
▁reklametafel	-5498
▁scheinwerfer	-5499
▁straßenseite	-5500
▁telefonieren	-5501
▁wasserbecken	-5502
▁wasserfläche	-5503
▁einkaufstüten	-5504
▁felsvorsprung	-5505
▁feuerwehrauto	-5506
▁fußballtrikot	-5507
▁kampfsportler	-5508
▁nachbarschaft	-5509
▁uniformierter	-5510
▁verkaufsstand	-5511
▁zeitschriften	-5512
▁amerikanischer	-5513
▁feuerwehrleute	-5514
▁orangefarbenes	-5515
▁schneebedeckte	-5516
▁schutzkleidung	-5517
▁stromschnellen	-5518
▁geschwindigkeit	-5519
▁irokesenschnitt	-5520
▁kapuzenpullover	-5521
▁schneebedecktes	-5522
ib	-5523
kö	-5524
nt	-5525
so	-5526
üb	-5527
aff	-5528
bun	-5529
bär	-5530
ddy	-5531
ffe	-5532
fol	-5533
ice	-5534
ipe	-5535
ips	-5536
itu	-5537
kol	-5538
mor	-5539
ogo	-5540
oly	-5541
pap	-5542
pos	-5543
ros	-5544
sem	-5545
spa	-5546
tem	-5547
urz	-5548
ärb	-5549
▁ad	-5550
▁fu	-5551
▁go	-5552
▁ip	-5553
▁is	-5554
▁of	-5555
▁op	-5556
▁är	-5557
adel	-5558
base	-5559
chor	-5560
denk	-5561
dtim	-5562
eife	-5563
gelb	-5564
gibt	-5565
ging	-5566
girl	-5567
hebt	-5568
iken	-5569
krem	-5570
kund	-5571
loch	-5572
lose	-5573
lten	-5574
mark	-5575
ppel	-5576
seil	-5577
stab	-5578
stem	-5579
stil	-5580
strü	-5581
trat	-5582
vern	-5583
wart	-5584
will	-5585
zern	-5586
zone	-5587
ßelt	-5588
ätte	-5589
öser	-5590
▁blu	-5591
▁blü	-5592
▁bud	-5593
▁bur	-5594
▁car	-5595
▁fle	-5596
▁fro	-5597
▁jen	-5598
▁jet	-5599
▁loh	-5600
▁mal	-5601
▁pun	-5602
▁sal	-5603
▁sar	-5604
▁squ	-5605
andes	-5606
auber	-5607
autos	-5608
blaue	-5609
bluse	-5610
diert	-5611
eider	-5612
farbe	-5613
flops	-5614
geben	-5615
große	-5616
ilien	-5617
kommt	-5618
köche	-5619
losen	-5620
mpfer	-5621
opoly	-5622
orten	-5623
persp	-5624
pfahl	-5625
punkt	-5626
skate	-5627
ssaal	-5628
stens	-5629
städt	-5630
terne	-5631
tromm	-5632
ubsch	-5633
ucher	-5634
wolke	-5635
zelle	-5636
▁amer	-5637
▁ausz	-5638
▁bark	-5639
▁blut	-5640
▁buck	-5641
▁chef	-5642
▁chir	-5643
▁elmo	-5644
▁erle	-5645
▁ethn	-5646
▁fang	-5647
▁früh	-5648
▁gurt	-5649
▁haut	-5650
▁hüpf	-5651
▁konf	-5652
▁lust	-5653
▁mach	-5654
▁mais	-5655
▁mopp	-5656
▁raus	-5657
▁reis	-5658
▁sägt	-5659
▁them	-5660
ammert	-5661
athlet	-5662
aturen	-5663
aufger	-5664
blauer	-5665
dtimer	-5666
ektive	-5667
espiel	-5668
führer	-5669
inosau	-5670
itzern	-5671
karren	-5672
karten	-5673
nungen	-5674
platte	-5675
rahmen	-5676
rauber	-5677
scheln	-5678
staben	-5679
strauß	-5680
teilen	-5681
tragen	-5682
ummern	-5683
utscht	-5684
versch	-5685
▁absol	-5686
▁aktiv	-5687
▁anges	-5688
▁armee	-5689
▁beten	-5690
▁betet	-5691
▁blask	-5692
▁breit	-5693
▁domin	-5694
▁halle	-5695
▁hause	-5696
▁hüfte	-5697
▁inder	-5698
▁köche	-5699
▁nadel	-5700
▁nagel	-5701
▁nahen	-5702
▁offiz	-5703
▁osten	-5704
▁paras	-5705
▁passt	-5706
▁pilot	-5707
▁rosen	-5708
▁ruhig	-5709
▁rührt	-5710
▁saugt	-5711
▁späht	-5712
▁stach	-5713
▁taube	-5714
▁techn	-5715
▁teddy	-5716
▁times	-5717
▁toten	-5718
▁tüten	-5719
dranten	-5720
flügeln	-5721
gematte	-5722
geräten	-5723
mmertag	-5724
pfosten	-5725
schwimm	-5726
sichtig	-5727
stellen	-5728
stellte	-5729
stiften	-5730
streckt	-5731
verkauf	-5732
ylophon	-5733
▁absatz	-5734
▁anzahl	-5735
▁aufges	-5736
▁bagger	-5737
▁batman	-5738
▁befind	-5739
▁beißen	-5740
▁beteil	-5741
▁blockt	-5742
▁busses	-5743
▁bäcker	-5744
▁bündel	-5745
▁dicken	-5746
▁eingew	-5747
▁europa	-5748
▁fackel	-5749
▁faszin	-5750
▁feuert	-5751
▁fitnes	-5752
▁fliege	-5753
▁fächer	-5754
▁garage	-5755
▁gießen	-5756
▁gipfel	-5757
▁glatze	-5758
▁handys	-5759
▁hüpfen	-5760
▁imbiss	-5761
▁indien	-5762
▁kommun	-5763
▁kämpft	-5764
▁küsten	-5765
▁laster	-5766
▁lecker	-5767
▁lernen	-5768
▁marmor	-5769
▁matsch	-5770
▁möchte	-5771
▁ozeans	-5772
▁parken	-5773
▁pfanne	-5774
▁puppen	-5775
▁schieß	-5776
▁schnor	-5777
▁schrau	-5778
▁skatet	-5779
▁soeben	-5780
▁sprüht	-5781
▁studio	-5782
▁transp	-5783
▁vögeln	-5784
▁wettei	-5785
▁wetter	-5786
▁zelten	-5787
▁ziegen	-5788
▁zuhört	-5789
armonika	-5790
erstelle	-5791
kreuzten	-5792
pielzeug	-5793
schienen	-5794
stiefeln	-5795
zeichnet	-5796
▁ansehen	-5797
▁auslage	-5798
▁ausländ	-5799
▁baumstä	-5800
▁bauwerk	-5801
▁billard	-5802
▁brechen	-5803
▁breiten	-5804
▁bürstet	-5805
▁darüber	-5806
▁einiger	-5807
▁figuren	-5808
▁fontäne	-5809
▁industr	-5810
▁jogging	-5811
▁kameram	-5812
▁legerer	-5813
▁meißelt	-5814
▁produkt	-5815
▁religiö	-5816
▁richten	-5817
▁rollers	-5818
▁schneem	-5819
▁schöner	-5820
▁smoking	-5821
▁staffel	-5822
▁steuert	-5823
▁stiefel	-5824
▁tourist	-5825
▁walmart	-5826
▁wildnis	-5827
▁zuhause	-5828
container	-5829
liegenden	-5830
schlitten	-5831
touristen	-5832
▁angemalt	-5833
▁backflip	-5834
▁dieselbe	-5835
▁erklimmt	-5836
▁esstisch	-5837
▁familien	-5838
▁forscher	-5839
▁frischem	-5840
▁gefroren	-5841
▁gehstock	-5842
▁gespielt	-5843
▁gewinnen	-5844
▁hochhack	-5845
▁intervie	-5846
▁kaufhaus	-5847
▁kontroll	-5848
▁lachende	-5849
▁laufband	-5850
▁läuferin	-5851
▁monopoly	-5852
▁oldtimer	-5853
▁polohemd	-5854
▁position	-5855
▁probiert	-5856
▁rostigen	-5857
▁sandburg	-5858
▁schlucht	-5859
▁schmalen	-5860
▁schnappt	-5861
▁silberne	-5862
▁stabhoch	-5863
▁unbekann	-5864
▁vorderen	-5865
▁wachmann	-5866
▁weiterer	-5867
bewegungen	-5868
polizisten	-5869
▁arbeitern	-5870
▁bestehend	-5871
▁bockenden	-5872
▁brennende	-5873
▁dekoriert	-5874
▁einkäufer	-5875
▁faulenzen	-5876
▁fernsehen	-5877
▁fernseher	-5878
▁flugzeugs	-5879
▁gelegenen	-5880
▁hochstuhl	-5881
▁kopfstein	-5882
▁projektor	-5883
▁randstein	-5884
▁rosaroten	-5885
▁sandhügel	-5886
▁schwenken	-5887
▁servieren	-5888
▁sommertag	-5889
▁stadtpark	-5890
▁steinbank	-5891
▁teenagern	-5892
▁trockenen	-5893
▁umgebenen	-5894
▁unterhemd	-5895
▁wollmütze	-5896
▁ziegelbau	-5897
perspektive	-5898
schulkinder	-5899
ubschrauber	-5900
verschieden	-5901
vorrichtung	-5902
▁angezogene	-5903
▁baumstumpf	-5904
▁begeistert	-5905
▁betonmauer	-5906
▁betrachter	-5907
▁buchstaben	-5908
▁dunkelheit	-5909
▁fahrzeugen	-5910
▁feldhockey	-5911
▁geflochten	-5912
▁geschmückt	-5913
▁grünfläche	-5914
▁hellgrünen	-5915
▁hängematte	-5916
▁kompletter	-5917
▁ladefläche	-5918
▁mitspieler	-5919
▁muskulöser	-5920
▁plüschtier	-5921
▁schachteln	-5922
▁schnüffelt	-5923
▁sporthalle	-5924
▁supermarkt	-5925
▁vorführung	-5926
▁vorsichtig	-5927
▁zahnbürste	-5928
▁anweisungen	-5929
▁aufblasbare	-5930
▁blaskapelle	-5931
▁chinesische	-5932
▁feuerstelle	-5933
▁gesichtsaus	-5934
▁irgendeinem	-5935
▁nahaufnahme	-5936
▁quarterback	-5937
▁rothaariger	-5938
▁seifenblase	-5939
▁sonnenlicht	-5940
▁spiegelbild	-5941
▁spielsachen	-5942
▁staubsauger	-5943
▁straßenfest	-5944
▁strumpfhose	-5945
▁altmodischen	-5946
▁baseballfeld	-5947
▁eingewickelt	-5948
▁gepflasterte	-5949
▁hosenträgern	-5950
▁mehrfarbigen	-5951
▁metallstange	-5952
▁schlafzimmer	-5953
▁telefonzelle	-5954
▁vorbeifahren	-5955
orangefarbenen	-5956
▁footballspiel	-5957
▁geldautomaten	-5958
▁gleichgewicht	-5959
▁straßenrennen	-5960
▁verschränkten	-5961
▁waschmaschine	-5962
▁ziegelgebäude	-5963
▁ausgeschnitten	-5964
▁backsteinmauer	-5965
▁elektronischen	-5966
▁orientalischer	-5967
▁wassersprenger	-5968
▁heraushängender	-5969
▁kopfbedeckungen	-5970
▁straßenarbeiter	-5971
mo	-5972
ys	-5973
aga	-5974
aph	-5975
caf	-5976
eim	-5977
eug	-5978
gar	-5979
gol	-5980
hat	-5981
met	-5982
mpf	-5983
ney	-5984
pit	-5985
rid	-5986
uer	-5987
upf	-5988
äch	-5989
övr	-5990
üll	-5991
▁ac	-5992
▁ap	-5993
▁bö	-5994
▁gä	-5995
▁hä	-5996
▁rü	-5997
▁öl	-5998
anzt	-5999
aste	-6000
azer	-6001
bike	-6002
book	-6003
brot	-6004
chel	-6005
cola	-6006
corn	-6007
dest	-6008
egte	-6009
etti	-6010
fass	-6011
ford	-6012
gert	-6013
glie	-6014
gren	-6015
hedr	-6016
hell	-6017
hren	-6018
ider	-6019
iegs	-6020
igol	-6021
ikel	-6022
imon	-6023
inke	-6024
kost	-6025
ltim	-6026
ogie	-6027
orgt	-6028
pult	-6029
rami	-6030
rauf	-6031
rett	-6032
roll	-6033
spur	-6034
sstu	-6035
szug	-6036
tuch	-6037
wahl	-6038
wirt	-6039
wohl	-6040
ählt	-6041
öcke	-6042
▁anl	-6043
▁cro	-6044
▁fir	-6045
▁gek	-6046
▁gok	-6047
▁kok	-6048
▁kre	-6049
▁pul	-6050
▁sam	-6051
amter	-6052
arena	-6053
arium	-6054
blatt	-6055
ckter	-6056
eeper	-6057
eindr	-6058
gress	-6059
grube	-6060
hohen	-6061
hütte	-6062
icken	-6063
ielen	-6064
ilder	-6065
ispan	-6066
kater	-6067
kiste	-6068
lings	-6069
llung	-6070
pfeln	-6071
pierc	-6072
ragen	-6073
regal	-6074
riges	-6075
roter	-6076
rotes	-6077
schun	-6078
stamm	-6079
techn	-6080
theke	-6081
trock	-6082
uktur	-6083
ungsk	-6084
weder	-6085
zeria	-6086
ätzen	-6087
übung	-6088
▁arch	-6089
▁befr	-6090
▁besp	-6091
▁body	-6092
▁bron	-6093
▁coca	-6094
▁dose	-6095
▁etwa	-6096
▁filz	-6097
▁führ	-6098
▁gefä	-6099
▁glet	-6100
▁huhn	-6101
▁kamm	-6102
▁kinn	-6103
▁kult	-6104
▁käse	-6105
▁latz	-6106
▁leop	-6107
▁lädt	-6108
▁muss	-6109
▁pain	-6110
▁ping	-6111
▁pult	-6112
▁saft	-6113
▁seit	-6114
▁seni	-6115
▁sims	-6116
▁skim	-6117
▁stil	-6118
▁säge	-6119
▁wart	-6120
▁welt	-6121
▁wenn	-6122
abteil	-6123
affeln	-6124
askott	-6125
beutel	-6126
bläser	-6127
bricht	-6128
ettern	-6129
etzter	-6130
finden	-6131
frisur	-6132
gegend	-6133
grüner	-6134
hüpfen	-6135
ierend	-6136
inchen	-6137
itäten	-6138
jugend	-6139
ketten	-6140
körben	-6141
olster	-6142
schütz	-6143
storte	-6144
sänger	-6145
treten	-6146
wommen	-6147
wärtss	-6148
ältere	-6149
änzern	-6150
▁abged	-6151
▁aller	-6152
▁apple	-6153
▁bergl	-6154
▁boote	-6155
▁creme	-6156
▁denkt	-6157
▁dosen	-6158
▁enten	-6159
▁event	-6160
▁genau	-6161
▁grund	-6162
▁hackt	-6163
▁heran	-6164
▁jenga	-6165
▁kabel	-6166
▁kanus	-6167
▁kimon	-6168
▁kolle	-6169
▁käfig	-6170
▁linke	-6171
▁löwen	-6172
▁neuen	-6173
▁näher	-6174
▁palme	-6175
▁plant	-6176
▁schnu	-6177
▁sprin	-6178
▁teilt	-6179
▁tippt	-6180
▁truth	-6181
▁ufers	-6182
▁volks	-6183
▁voran	-6184
▁wanne	-6185
▁warte	-6186
▁wippe	-6187
▁ziege	-6188
▁zielt	-6189
alteten	-6190
aterial	-6191
draußen	-6192
galerie	-6193
haltung	-6194
kulptur	-6195
malerei	-6196
oreiter	-6197
schnell	-6198
stöcken	-6199
stücken	-6200
▁albern	-6201
▁angeln	-6202
▁aufgeb	-6203
▁basken	-6204
▁beschm	-6205
▁beschn	-6206
▁besprü	-6207
▁beutel	-6208
▁binden	-6209
▁blazer	-6210
▁bleibt	-6211
▁design	-6212
▁dieses	-6213
▁dschun	-6214
▁dünnen	-6215
▁europä	-6216
▁ganzen	-6217
▁gefärb	-6218
▁geschr	-6219
▁gestap	-6220
▁gokart	-6221
▁habsel	-6222
▁hacken	-6223
▁herzen	-6224
▁hinweg	-6225
▁hocken	-6226
▁hübsch	-6227
▁intens	-6228
▁kabine	-6229
▁kajaks	-6230
▁kaukas	-6231
▁kehren	-6232
▁kickbo	-6233
▁labrad	-6234
▁ladens	-6235
▁langes	-6236
▁lebens	-6237
▁leitet	-6238
▁mechan	-6239
▁nassem	-6240
▁ochsen	-6241
▁pfeife	-6242
▁pinsel	-6243
▁plüsch	-6244
▁pyrami	-6245
▁regelt	-6246
▁regnet	-6247
▁reicht	-6248
▁reisen	-6249
▁riesen	-6250
▁schals	-6251
▁schnür	-6252
▁segelt	-6253
▁sieben	-6254
▁square	-6255
▁strahl	-6256
▁street	-6257
▁tempel	-6258
▁trüben	-6259
▁urlaub	-6260
▁verwir	-6261
▁waffel	-6262
▁waffen	-6263
▁wilden	-6264
▁zweite	-6265
baseball	-6266
bebalken	-6267
einfahrt	-6268
eitungen	-6269
gelegten	-6270
gliedern	-6271
ichteten	-6272
itischen	-6273
jungfern	-6274
position	-6275
pullover	-6276
schlange	-6277
sportler	-6278
stürzten	-6279
zufangen	-6280
zuführen	-6281
▁anderem	-6282
▁bananen	-6283
▁beeindr	-6284
▁begriff	-6285
▁bleiben	-6286
▁buckeln	-6287
▁digital	-6288
▁fassade	-6289
▁felsens	-6290
▁flammen	-6291
▁frische	-6292
▁glastür	-6293
▁kathedr	-6294
▁kümmern	-6295
▁metallt	-6296
▁nummern	-6297
▁objekte	-6298
▁piraten	-6299
▁pistole	-6300
▁popcorn	-6301
▁schenkt	-6302
▁schritt	-6303
▁schwere	-6304
▁schwier	-6305
▁säubert	-6306
▁trottet	-6307
▁unterst	-6308
▁verschm	-6309
▁versuch	-6310
▁zebrast	-6311
▁zigarre	-6312
▁zurecht	-6313
erleadern	-6314
lastwagen	-6315
promenade	-6316
schildern	-6317
schützern	-6318
▁beginnen	-6319
▁broschür	-6320
▁deutsche	-6321
▁einsamen	-6322
▁entweder	-6323
▁ereignis	-6324
▁faulenzt	-6325
▁felsform	-6326
▁frischen	-6327
▁gefahren	-6328
▁gesäumte	-6329
▁getragen	-6330
▁getreide	-6331
▁hinteren	-6332
▁innenhof	-6333
▁krabbelt	-6334
▁pizzeria	-6335
▁rockband	-6336
▁schleift	-6337
▁seichtem	-6338
▁sortiert	-6339
▁spielern	-6340
▁spielers	-6341
▁struktur	-6342
▁torbogen	-6343
▁training	-6344
▁türkisen	-6345
▁zeichnen	-6346
▁zitronen	-6347
angehörige	-6348
askottchen	-6349
unterricht	-6350
▁afrikaner	-6351
▁anzusehen	-6352
▁badehosen	-6353
▁badekappe	-6354
▁barkeeper	-6355
▁beleuchte	-6356
▁dekorativ	-6357
▁dirigiert	-6358
▁dschungel	-6359
▁einfachen	-6360
▁eislaufen	-6361
▁fahrzeugs	-6362
▁fröhliche	-6363
▁gepolster	-6364
▁gletscher	-6365
▁großstadt	-6366
▁holzbrett	-6367
▁industrie	-6368
▁innenraum	-6369
▁kaninchen	-6370
▁karierter	-6371
▁kontrolle	-6372
▁mcdonalds	-6373
▁probieren	-6374
▁pullovern	-6375
▁ringkampf	-6376
▁ruderboot	-6377
▁schlafend	-6378
▁schrauben	-6379
▁staffelei	-6380
▁tauziehen	-6381
▁toiletten	-6382
▁umzäunten	-6383
▁versteckt	-6384
▁violetter	-6385
▁warnweste	-6386
▁wintertag	-6387
bahnstation	-6388
gestreiften	-6389
▁absperrung	-6390
▁angefeuert	-6391
▁barfüßiger	-6392
▁brennenden	-6393
▁felsklippe	-6394
▁fischmarkt	-6395
▁gefleckter	-6396
▁geldbeutel	-6397
▁geschlagen	-6398
▁gestreifte	-6399
▁glückliche	-6400
▁handwerker	-6401
▁kameramann	-6402
▁mitglieder	-6403
▁nachmittag	-6404
▁passagiere	-6405
▁profession	-6406
▁rennfahrer	-6407
▁schneeball	-6408
▁smartphone	-6409
▁spielenden	-6410
▁stadtszene	-6411
▁startlinie	-6412
▁tankstelle	-6413
▁tropischen	-6414
▁weiblichen	-6415
verschiedene	-6416
▁aktentasche	-6417
▁aufeinander	-6418
▁aufgeblasen	-6419
▁aufgenommen	-6420
▁baskenmütze	-6421
▁baumstämmen	-6422
▁betonstufen	-6423
▁einrichtung	-6424
▁gegnerische	-6425
▁gemusterten	-6426
▁handtaschen	-6427
▁irgendeiner	-6428
▁jeansshorts	-6429
▁kaffeetasse	-6430
▁passagieren	-6431
▁rodeoreiter	-6432
▁schlafendes	-6433
▁schokoladen	-6434
▁vorstellung	-6435
▁wandmalerei	-6436
▁winterjacke	-6437
amerikanische	-6438
fahrradfahrer	-6439
▁ausgebreitet	-6440
▁beeindrucken	-6441
▁bohrmaschine	-6442
▁cheerleadern	-6443
▁chinesischer	-6444
▁footballfeld	-6445
▁geflochtenen	-6446
▁gesellschaft	-6447
▁historischen	-6448
▁hochhackigen	-6449
▁interagieren	-6450
▁kunstgalerie	-6451
▁leichtathlet	-6452
▁lilafarbener	-6453
▁schlittschuh	-6454
▁straßenszene	-6455
▁uniformierte	-6456
▁unterhaltung	-6457
▁verschwommen	-6458
▁wasserstraße	-6459
▁blondhaariger	-6460
▁braunhaariges	-6461
▁cheerleaderin	-6462
▁demonstration	-6463
▁einheimischer	-6464
▁fahrradrennen	-6465
▁khakifarbener	-6466
▁müllcontainer	-6467
▁schwebebalken	-6468
▁traditionelle	-6469
▁wassermelonen	-6470
▁zebrastreifen	-6471
▁ausgebreiteten	-6472
▁basketballfeld	-6473
▁berglandschaft	-6474
▁burgunderroten	-6475
▁habseligkeiten	-6476
▁hochzuklettern	-6477
▁hundespielzeug	-6478
▁pflasterstraße	-6479
▁schlittschuhen	-6480
▁straßenmusiker	-6481
▁wahrscheinlich	-6482
▁backsteinstraße	-6483
▁einkaufstaschen	-6484
▁friedenszeichen	-6485
▁geländefahrzeug	-6486
▁motocrossfahrer	-6487
▁musikinstrument	-6488
▁reflektierenden	-6489
▁stammeskleidung	-6490
▁volleyballspiel	-6491
fz	-6492
lä	-6493
ph	-6494
ye	-6495
agt	-6496
air	-6497
aum	-6498
flu	-6499
fre	-6500
gür	-6501
hän	-6502
ica	-6503
imp	-6504
ino	-6505
kie	-6506
kin	-6507
kur	-6508
lau	-6509
lei	-6510
lim	-6511
nev	-6512
ogr	-6513
olt	-6514
ond	-6515
pon	-6516
ppt	-6517
prä	-6518
rat	-6519
sho	-6520
ton	-6521
tra	-6522
try	-6523
upp	-6524
wür	-6525
ymb	-6526
zus	-6527
ügt	-6528
▁ag	-6529
▁wh	-6530
arat	-6531
ator	-6532
bade	-6533
bill	-6534
blon	-6535
boss	-6536
chco	-6537
crew	-6538
digt	-6539
ehen	-6540
erie	-6541
eter	-6542
fans	-6543
ffet	-6544
fiel	-6545
font	-6546
gele	-6547
gier	-6548
gurt	-6549
heel	-6550
hüte	-6551
ilch	-6552
inde	-6553
inis	-6554
isst	-6555
itte	-6556
iven	-6557
izen	-6558
jama	-6559
kart	-6560
kler	-6561
nern	-6562
nähe	-6563
pass	-6564
pipe	-6565
pper	-6566
rang	-6567
raut	-6568
rier	-6569
rote	-6570
rüpp	-6571
saft	-6572
sand	-6573
ston	-6574
tion	-6575
turn	-6576
uchs	-6577
uell	-6578
welt	-6579
zeln	-6580
ädig	-6581
äumt	-6582
ügel	-6583
ünen	-6584
▁beh	-6585
▁com	-6586
▁day	-6587
▁deu	-6588
▁dok	-6589
▁don	-6590
▁fan	-6591
▁fäu	-6592
▁gas	-6593
▁got	-6594
▁gän	-6595
▁kal	-6596
▁kek	-6597
▁kna	-6598
▁kul	-6599
▁lat	-6600
▁lig	-6601
▁lob	-6602
▁meg	-6603
▁mer	-6604
▁nav	-6605
▁org	-6606
▁pan	-6607
▁pow	-6608
▁pri	-6609
▁pus	-6610
▁sms	-6611
▁sol	-6612
▁wäl	-6613
▁zom	-6614
▁zut	-6615
▁üpp	-6616
acken	-6617
allye	-6618
altet	-6619
anell	-6620
arden	-6621
attle	-6622
aufel	-6623
boote	-6624
bälle	-6625
ckern	-6626
essor	-6627
ettel	-6628
ettes	-6629
famil	-6630
fisch	-6631
hänge	-6632
hängt	-6633
hüten	-6634
ierer	-6635
kröte	-6636
mobil	-6637
neben	-6638
onern	-6639
oners	-6640
order	-6641
packt	-6642
pfang	-6643
produ	-6644
reibt	-6645
schle	-6646
spass	-6647
stopf	-6648
stron	-6649
sturm	-6650
ständ	-6651
säcke	-6652
tnach	-6653
untry	-6654
waffe	-6655
watte	-6656
wiese	-6657
wirft	-6658
ängst	-6659
ässer	-6660
ücher	-6661
üssel	-6662
▁allt	-6663
▁atem	-6664
▁bauf	-6665
▁bequ	-6666
▁dess	-6667
▁food	-6668
▁gehe	-6669
▁gekü	-6670
▁glät	-6671
▁ipod	-6672
▁kenn	-6673
▁krug	-6674
▁kund	-6675
▁kuss	-6676
▁lebh	-6677
▁lego	-6678
▁make	-6679
▁mini	-6680
▁open	-6681
▁patr	-6682
▁pony	-6683
▁pose	-6684
▁qual	-6685
▁ruft	-6686
▁saal	-6687
▁senk	-6688
▁sign	-6689
▁sorg	-6690
▁spag	-6691
▁spar	-6692
▁steg	-6693
▁tack	-6694
▁tren	-6695
▁umkl	-6696
▁verh	-6697
▁wolk	-6698
▁wäre	-6699
agiert	-6700
ailing	-6701
bernen	-6702
besitz	-6703
betrie	-6704
blaues	-6705
bligen	-6706
blumen	-6707
booten	-6708
bunten	-6709
busses	-6710
chcoat	-6711
ckigen	-6712
decker	-6713
detwas	-6714
endung	-6715
fangen	-6716
fältig	-6717
führen	-6718
geräte	-6719
helmen	-6720
hemden	-6721
ienung	-6722
inette	-6723
ington	-6724
kappen	-6725
koffer	-6726
kragen	-6727
minton	-6728
oshirt	-6729
ousine	-6730
papier	-6731
pfütze	-6732
schuss	-6733
sitzen	-6734
splatz	-6735
steigt	-6736
steine	-6737
stellt	-6738
tattoo	-6739
teller	-6740
tratze	-6741
tresen	-6742
urnier	-6743
ärgert	-6744
ückten	-6745
▁batik	-6746
▁baums	-6747
▁beauf	-6748
▁beför	-6749
▁bohrt	-6750
▁bulle	-6751
▁dress	-6752
▁freut	-6753
▁fried	-6754
▁funkt	-6755
▁gebir	-6756
▁gemüt	-6757
▁gleis	-6758
▁haken	-6759
▁hasen	-6760
▁helle	-6761
▁hänge	-6762
▁irgen	-6763
▁kamin	-6764
▁keine	-6765
▁klass	-6766
▁kunde	-6767
▁körbe	-6768
▁liebl	-6769
▁limon	-6770
▁matro	-6771
▁miami	-6772
▁milch	-6773
▁möwen	-6774
▁paket	-6775
▁pitch	-6776
▁radio	-6777
▁reise	-6778
▁salat	-6779
▁schar	-6780
▁schlä	-6781
▁schrä	-6782
▁schär	-6783
▁spült	-6784
▁state	-6785
▁still	-6786
▁tauch	-6787
▁thema	-6788
▁tiger	-6789
▁ultim	-6790
▁umgek	-6791
▁verst	-6792
▁wegen	-6793
▁wenig	-6794
▁werbe	-6795
▁wheel	-6796
▁wiegt	-6797
▁wählt	-6798
▁wände	-6799
▁zelte	-6800
▁überw	-6801
absperr	-6802
arcours	-6803
blätter	-6804
boarden	-6805
brochen	-6806
deckten	-6807
destens	-6808
figuren	-6809
fleisch	-6810
freunde	-6811
hindern	-6812
kapelle	-6813
meister	-6814
ohmarkt	-6815
pistole	-6816
respiel	-6817
skuchen	-6818
sstudio	-6819
zenerie	-6820
übungen	-6821
▁aktion	-6822
▁amboss	-6823
▁athlet	-6824
▁aufhat	-6825
▁balgen	-6826
▁befrei	-6827
▁beigen	-6828
▁bekann	-6829
▁berggi	-6830
▁bleist	-6831
▁bricht	-6832
▁bulldo	-6833
▁buntem	-6834
▁buntes	-6835
▁bürste	-6836
▁domino	-6837
▁doppel	-6838
▁einger	-6839
▁essend	-6840
▁fußweg	-6841
▁gebaut	-6842
▁gesche	-6843
▁geschn	-6844
▁hawaii	-6845
▁herein	-6846
▁hispan	-6847
▁häuser	-6848
▁inhalt	-6849
▁jogger	-6850
▁kabeln	-6851
▁karnev	-6852
▁kasten	-6853
▁kegeln	-6854
▁kicken	-6855
▁kittel	-6856
▁latein	-6857
▁leiden	-6858
▁manövr	-6859
▁muslim	-6860
▁nackte	-6861
▁nichts	-6862
▁obwohl	-6863
▁ohrhör	-6864
▁packen	-6865
▁pinken	-6866
▁prächt	-6867
▁raufen	-6868
▁rummel	-6869
▁schale	-6870
▁schatt	-6871
▁schick	-6872
▁schält	-6873
▁spritz	-6874
▁stelle	-6875
▁stücke	-6876
▁subway	-6877
▁tiefen	-6878
▁tinten	-6879
▁vorles	-6880
▁wirken	-6881
▁wurden	-6882
▁wüsten	-6883
▁zauber	-6884
▁zähnen	-6885
▁zündet	-6886
bewohner	-6887
blättern	-6888
erstellt	-6889
fallenen	-6890
köpfigen	-6891
mannszug	-6892
pflegten	-6893
schaufel	-6894
schlacht	-6895
schwarze	-6896
spassage	-6897
sperrten	-6898
teenager	-6899
werkzeug	-6900
▁abgesch	-6901
▁angesch	-6902
▁armband	-6903
▁ausflug	-6904
▁auswahl	-6905
▁bandmit	-6906
▁bastelt	-6907
▁beendet	-6908
▁bikinis	-6909
▁blument	-6910
▁cowgirl	-6911
▁dinosau	-6912
▁dunkeln	-6913
▁eisbahn	-6914
▁empfang	-6915
▁erinner	-6916
▁farbige	-6917
▁fechten	-6918
▁fernseh	-6919
▁filzhut	-6920
▁flanell	-6921
▁füttern	-6922
▁garagen	-6923
▁gehoben	-6924
▁gehwegs	-6925
▁gehüllt	-6926
▁grinsen	-6927
▁gürteln	-6928
▁haltend	-6929
▁handgel	-6930
▁hotdogs	-6931
▁hörsaal	-6932
▁kiefern	-6933
▁kompliz	-6934
▁minigol	-6935
▁nachden	-6936
▁nackten	-6937
▁nackter	-6938
▁nacktes	-6939
▁notizen	-6940
▁offener	-6941
▁perücke	-6942
▁pfannen	-6943
▁pflückt	-6944
▁punkten	-6945
▁rollern	-6946
▁ruhigem	-6947
▁schippt	-6948
▁schloss	-6949
▁schwanz	-6950
▁seattle	-6951
▁spitzen	-6952
▁strickt	-6953
▁stöbern	-6954
▁tackelt	-6955
▁tänzern	-6956
▁umgedre	-6957
▁umhänge	-6958
▁verlegt	-6959
▁wohnung	-6960
▁zutaten	-6961
bereitung	-6962
plattform	-6963
schneiden	-6964
sgeschäft	-6965
stehenden	-6966
▁angelein	-6967
▁anschaut	-6968
▁aquarium	-6969
▁aufrecht	-6970
▁ausdruck	-6971
▁ausschau	-6972
▁autositz	-6973
▁besonder	-6974
▁bestellt	-6975
▁besuchen	-6976
▁erreicht	-6977
▁erwischt	-6978
▁fernrohr	-6979
▁festival	-6980
▁fingernä	-6981
▁funktion	-6982
▁gewehren	-6983
▁hochhält	-6984
▁hüpfburg	-6985
▁intensiv	-6986
▁irgendwo	-6987
▁jüngeres	-6988
▁kleinere	-6989
▁konfetti	-6990
▁liegende	-6991
▁modernen	-6992
▁musikern	-6993
▁mülltüte	-6994
▁pyramide	-6995
▁rauchend	-6996
▁schaufen	-6997
▁schienen	-6998
▁schlecht	-6999
▁schweren	-7000
▁schülern	-7001
▁seitlich	-7002
▁senioren	-7003
▁studiert	-7004
▁trocknet	-7005
▁ultimate	-7006
▁umhängen	-7007
▁unaufger	-7008
▁verkehrt	-7009
▁versehen	-7010
▁verwirrt	-7011
▁wettlauf	-7012
aufführung	-7013
gegenstand	-7014
oberfläche	-7015
schaftlich	-7016
wärtssalto	-7017
▁anschauen	-7018
▁aufschlag	-7019
▁aufwärmen	-7020
▁badminton	-7021
▁bedeckter	-7022
▁befahrene	-7023
▁begleiter	-7024
▁beschädig	-7025
▁beteiligt	-7026
▁betonbank	-7027
▁blühenden	-7028
▁durchgang	-7029
▁eventuell	-7030
▁fahrenden	-7031
▁frühstück	-7032
▁geradeaus	-7033
▁gerichtet	-7034
▁gesenktem	-7035
▁gesichter	-7036
▁gestapelt	-7037
▁golfplatz	-7038
▁hemdbluse	-7039
▁holztisch	-7040
▁hydranten	-7041
▁interview	-7042
▁kartoffel	-7043
▁khakihose	-7044
▁landkarte	-7045
▁leoparden	-7046
▁limousine	-7047
▁meeresfrü	-7048
▁mikrofone	-7049
▁motorboot	-7050
▁nachtclub	-7051
▁platziert	-7052
▁poloshirt	-7053
▁professor	-7054
▁promenade	-7055
▁radfahren	-7056
▁schnuller	-7057
▁spielerin	-7058
▁stofftier	-7059
▁strahlend	-7060
▁teilnimmt	-7061
▁untergeht	-7062
▁verfolgen	-7063
▁verteilen	-7064
▁verärgert	-7065
▁wanderweg	-7066
▁weinendes	-7067
▁wunderker	-7068
▁zeitungen	-7069
angehöriger	-7070
handschuhen	-7071
▁akustische	-7072
▁ausgestopf	-7073
▁beaufsicht	-7074
▁durchsucht	-7075
▁eiswaffeln	-7076
▁farbenfroh	-7077
▁fasziniert	-7078
▁fröhliches	-7079
▁geöffnetem	-7080
▁hellgelben	-7081
▁highschool	-7082
▁inspiziert	-7083
▁irgendeine	-7084
▁kampfkunst	-7085
▁kathedrale	-7086
▁maulkörben	-7087
▁metallzaun	-7088
▁mikrofonen	-7089
▁möbelstück	-7090
▁rasenmäher	-7091
▁sackhüpfen	-7092
▁schlendern	-7093
▁schmettert	-7094
▁schnorchel	-7095
▁sorgfältig	-7096
▁spielzeuge	-7097
▁teenagerin	-7098
▁tischdecke	-7099
▁trenchcoat	-7100
▁warnwesten	-7101
▁wasserfont	-7102
▁werkzeugen	-7103
▁wetteifern	-7104
▁ärmellosem	-7105
▁überblickt	-7106
spielerinnen	-7107
▁bahngleisen	-7108
▁begutachten	-7109
▁betonplatte	-7110
▁bücherregal	-7111
▁dekorativen	-7112
▁dekorierten	-7113
▁dreiköpfige	-7114
▁einzufangen	-7115
▁entgegenges	-7116
▁essenswagen	-7117
▁fußballteam	-7118
▁gelbbrauner	-7119
▁geschrieben	-7120
▁geschäftige	-7121
▁glückliches	-7122
▁hochgehoben	-7123
▁hochspringt	-7124
▁inspizieren	-7125
▁irgendetwas	-7126
▁kajakfahrer	-7127
▁karateanzug	-7128
▁kartenspiel	-7129
▁kunstvollen	-7130
▁lippenstift	-7131
▁mannschafts	-7132
▁mehrfarbige	-7133
▁parasailing	-7134
▁rothaarigen	-7135
▁schmutziges	-7136
▁schotterweg	-7137
▁schulkinder	-7138
▁seitenlinie	-7139
▁speisekarte	-7140
▁straßenbahn	-7141
▁tischtennis	-7142
▁tänzerinnen	-7143
▁tätowierter	-7144
▁verlassenen	-7145
▁videokamera	-7146
▁videospiele	-7147
▁weihnachten	-7148
▁zuckerwatte	-7149
▁überdachten	-7150
▁abgesperrten	-7151
▁badekleidung	-7152
▁befindlichen	-7153
▁blumenstrauß	-7154
▁bullenreiter	-7155
▁dekorationen	-7156
▁fußballteams	-7157
▁geschminkten	-7158
▁gitarrespiel	-7159
▁goldfarbenen	-7160
▁hubschrauber	-7161
▁klappstühlen	-7162
▁küchentresen	-7163
▁liegestühlen	-7164
▁marineblauen	-7165
▁rugbyspieler	-7166
▁sandskulptur	-7167
▁schaulustige	-7168
▁seilspringen	-7169
▁spazierstock	-7170
▁straßenmarkt	-7171
▁taucheranzug	-7172
▁umgestürzten	-7173
▁verkleideter	-7174
▁vorübergehen	-7175
pflasterstraße	-7176
▁abgedunkelten	-7177
▁aufgeblasenen	-7178
▁digitalkamera	-7179
▁fitnessstudio	-7180
▁karateanzügen	-7181
▁nadelstreifen	-7182
▁schmetterling	-7183
▁schwarzweißer	-7184
▁schwimmwesten	-7185
▁softballspiel	-7186
▁spielmannszug	-7187
▁spielzeugauto	-7188
▁tennisschuhen	-7189
feuerwehrmänner	-7190
footballspieler	-7191
▁aufmerksamkeit	-7192
▁bikinioberteil	-7193
▁bordsteinkante	-7194
▁fußballspielen	-7195
▁hochzeitskleid	-7196
▁hochzeitstorte	-7197
▁modellflugzeug	-7198
▁schotterstraße	-7199
▁schwimmflügeln	-7200
▁skateboardpark	-7201
▁stabhochsprung	-7202
▁türkisfarbenen	-7203
▁unaufgeräumten	-7204
▁einkaufspassage	-7205
▁fußgängerbrücke	-7206
▁krankenhausbett	-7207
▁motorradfahrern	-7208
▁skateboardtrick	-7209
▁strandpromenade	-7210
▁verschiedenfarb	-7211
ai	-7212
lu	-7213
ry	-7214
ud	-7215
ös	-7216
agg	-7217
ahm	-7218
ame	-7219
any	-7220
atu	-7221
bob	-7222
bon	-7223
cap	-7224
cow	-7225
ege	-7226
eib	-7227
ele	-7228
flo	-7229
ham	-7230
iko	-7231
iot	-7232
iqu	-7233
kab	-7234
lin	-7235
mat	-7236
nam	-7237
oke	-7238
orb	-7239
osk	-7240
osn	-7241
ota	-7242
rer	-7243
ruh	-7244
räd	-7245
spü	-7246
typ	-7247
ult	-7248
ure	-7249
völ	-7250
wal	-7251
änk	-7252
öst	-7253
▁cy	-7254
▁ed	-7255
▁ga	-7256
▁li	-7257
▁ri	-7258
▁si	-7259
▁sö	-7260
▁sü	-7261
▁yo	-7262
adem	-7263
ader	-7264
afür	-7265
ager	-7266
ahlt	-7267
alie	-7268
anis	-7269
ards	-7270
arme	-7271
beim	-7272
bude	-7273
down	-7274
entr	-7275
eogr	-7276
esst	-7277
etch	-7278
ftet	-7279
gumm	-7280
halm	-7281
itze	-7282
jagt	-7283
jahr	-7284
kids	-7285
komp	-7286
ktor	-7287
männ	-7288
ness	-7289
nete	-7290
onge	-7291
pern	-7292
pert	-7293
rein	-7294
sein	-7295
sich	-7296
spaz	-7297
star	-7298
stat	-7299
steg	-7300
ucks	-7301
uhen	-7302
umor	-7303
ware	-7304
wohn	-7305
änen	-7306
üsse	-7307
▁amp	-7308
▁att	-7309
▁cam	-7310
▁cap	-7311
▁cri	-7312
▁dog	-7313
▁drä	-7314
▁fol	-7315
▁har	-7316
▁hus	-7317
▁hüt	-7318
▁jüd	-7319
▁kop	-7320
▁kro	-7321
▁krü	-7322
▁lok	-7323
▁lot	-7324
▁ped	-7325
▁sky	-7326
▁sod	-7327
▁süd	-7328
▁van	-7329
▁vis	-7330
ascar	-7331
atuen	-7332
boter	-7333
compu	-7334
eiche	-7335
eugen	-7336
fchen	-7337
ffeln	-7338
fpipe	-7339
gelbe	-7340
grill	-7341
gäste	-7342
herum	-7343
holen	-7344
hören	-7345
ienst	-7346
igner	-7347
irmes	-7348
kegel	-7349
klapp	-7350
klein	-7351
klich	-7352
kreis	-7353
kremp	-7354
legen	-7355
leger	-7356
ochen	-7357
ohren	-7358
olfen	-7359
piste	-7360
plane	-7361
rauch	-7362
regen	-7363
reich	-7364
reise	-7365
ridor	-7366
schar	-7367
schie	-7368
start	-7369
train	-7370
truck	-7371
uldig	-7372
unner	-7373
urgen	-7374
viert	-7375
vogel	-7376
wache	-7377
ymbol	-7378
zchen	-7379
ägers	-7380
ärten	-7381
▁arab	-7382
▁brät	-7383
▁bumm	-7384
▁chem	-7385
▁cock	-7386
▁cola	-7387
▁dart	-7388
▁denk	-7389
▁dirt	-7390
▁enge	-7391
▁ents	-7392
▁euro	-7393
▁free	-7394
▁fund	-7395
▁gekr	-7396
▁grab	-7397
▁gute	-7398
▁gärt	-7399
▁head	-7400
▁hebe	-7401
▁ital	-7402
▁jung	-7403
▁kein	-7404
▁lehm	-7405
▁love	-7406
▁lung	-7407
▁mass	-7408
▁mast	-7409
▁mehl	-7410
▁mich	-7411
▁nike	-7412
▁pack	-7413
▁papa	-7414
▁pfau	-7415
▁port	-7416
▁prie	-7417
▁reit	-7418
▁rest	-7419
▁sari	-7420
▁senf	-7421
▁spir	-7422
▁spur	-7423
▁spät	-7424
▁stoß	-7425
▁stro	-7426
▁tüte	-7427
▁wash	-7428
▁winz	-7429
▁wort	-7430
affell	-7431
blöcke	-7432
bündel	-7433
cowboy	-7434
eigung	-7435
eisten	-7436
esseln	-7437
ettelt	-7438
funden	-7439
gläser	-7440
grünem	-7441
grünes	-7442
hauses	-7443
ikatur	-7444
indeln	-7445
ingham	-7446
itiert	-7447
kissen	-7448
kisten	-7449
kittel	-7450
komple	-7451
kriegs	-7452
lungen	-7453
masken	-7454
massen	-7455
masten	-7456
museum	-7457
nettes	-7458
passen	-7459
plakat	-7460
puppen	-7461
ringen	-7462
röcken	-7463
schale	-7464
schnur	-7465
selben	-7466
shalle	-7467
skater	-7468
statur	-7469
strich	-7470
stöcke	-7471
surfer	-7472
swagen	-7473
termin	-7474
utlich	-7475
voller	-7476
ztisch	-7477
äuchen	-7478
▁acker	-7479
▁anbie	-7480
▁angeg	-7481
▁anger	-7482
▁anzie	-7483
▁ausru	-7484
▁baden	-7485
▁bades	-7486
▁bauer	-7487
▁beruh	-7488
▁bevöl	-7489
▁bongo	-7490
▁brief	-7491
▁bären	-7492
▁chips	-7493
▁coach	-7494
▁comic	-7495
▁dafür	-7496
▁deckt	-7497
▁defen	-7498
▁derby	-7499
▁dünne	-7500
▁ebene	-7501
▁einzu	-7502
▁erdbe	-7503
▁erken	-7504
▁faust	-7505
▁front	-7506
▁frühl	-7507
▁gäste	-7508
▁halbw	-7509
▁harfe	-7510
▁heißt	-7511
▁hucke	-7512
▁ident	-7513
▁jahre	-7514
▁jeman	-7515
▁juwel	-7516
▁kanal	-7517
▁kaput	-7518
▁kerze	-7519
▁kites	-7520
▁leere	-7521
▁lehrt	-7522
▁lenkt	-7523
▁lobby	-7524
▁messe	-7525
▁misst	-7526
▁mönch	-7527
▁nasen	-7528
▁nasse	-7529
▁nippt	-7530
▁obama	-7531
▁paint	-7532
▁parks	-7533
▁pingu	-7534
▁plane	-7535
▁ponch	-7536
▁power	-7537
▁preis	-7538
▁probt	-7539
▁punkt	-7540
▁regal	-7541
▁rings	-7542
▁runde	-7543
▁räumt	-7544
▁schei	-7545
▁seife	-7546
▁skige	-7547
▁skist	-7548
▁stiel	-7549
▁sturm	-7550
▁sturz	-7551
▁stämm	-7552
▁wadet	-7553
▁waten	-7554
▁zehen	-7555
▁zeige	-7556
▁zupft	-7557
▁ärmel	-7558
▁übung	-7559
afrikan	-7560
attrakt	-7561
ausflug	-7562
brechen	-7563
emantel	-7564
emdchen	-7565
farbene	-7566
fischer	-7567
flieger	-7568
geschen	-7569
gestell	-7570
ießlich	-7571
istolen	-7572
mischer	-7573
monitor	-7574
mänteln	-7575
ongebob	-7576
orangen	-7577
platten	-7578
rutscht	-7579
schwarm	-7580
sstatue	-7581
traktor	-7582
treffen	-7583
turnier	-7584
wiegend	-7585
älterer	-7586
▁abdeck	-7587
▁abente	-7588
▁abfall	-7589
▁abhang	-7590
▁action	-7591
▁attack	-7592
▁aufkle	-7593
▁bahnen	-7594
▁basket	-7595
▁bequem	-7596
▁boogie	-7597
▁bronze	-7598
▁büsche	-7599
▁collie	-7600
▁deutet	-7601
▁diadem	-7602
▁dicker	-7603
▁disney	-7604
▁einzig	-7605
▁entsch	-7606
▁federn	-7607
▁freuen	-7608
▁gebück	-7609
▁gejagt	-7610
▁gemalt	-7611
▁graues	-7612
▁grills	-7613
▁großem	-7614
▁harten	-7615
▁hängeb	-7616
▁intern	-7617
▁kirmes	-7618
▁kokosn	-7619
▁kosten	-7620
▁kultur	-7621
▁ladung	-7622
▁lappen	-7623
▁masken	-7624
▁montur	-7625
▁nudeln	-7626
▁pfoten	-7627
▁pinata	-7628
▁pustet	-7629
▁pyjama	-7630
▁rallye	-7631
▁rampen	-7632
▁riemen	-7633
▁ruinen	-7634
▁rundes	-7635
▁rustik	-7636
▁schleu	-7637
▁spider	-7638
▁steuer	-7639
▁stoßen	-7640
▁stützt	-7641
▁tische	-7642
▁vaters	-7643
▁verspr	-7644
▁wangen	-7645
▁winken	-7646
▁würden	-7647
▁zugeht	-7648
▁ärmeln	-7649
aufgaben	-7650
auftritt	-7651
besucher	-7652
computer	-7653
demonstr	-7654
ertasche	-7655
fertigen	-7656
fluteten	-7657
isierten	-7658
marathon	-7659
objektiv	-7660
pflanzen	-7661
piercing	-7662
schonern	-7663
stammung	-7664
stattung	-7665
stimmten	-7666
teiligen	-7667
umgebung	-7668
wanderer	-7669
▁angriff	-7670
▁ansicht	-7671
▁artikel	-7672
▁aufgabe	-7673
▁beenden	-7674
▁befragt	-7675
▁betrieb	-7676
▁betritt	-7677
▁bettelt	-7678
▁brünett	-7679
▁büchern	-7680
▁chirurg	-7681
▁dessert	-7682
▁dirigen	-7683
▁drängen	-7684
▁einschl	-7685
▁endzone	-7686
▁erzählt	-7687
▁fackeln	-7688
▁felsige	-7689
▁fertigt	-7690
▁flaches	-7691
▁flieger	-7692
▁fließen	-7693
▁führung	-7694
▁gebogen	-7695
▁gemisch	-7696
▁gesprei	-7697
▁getrock	-7698
▁gewicht	-7699
▁gleiche	-7700
▁gärtner	-7701
▁hechtet	-7702
▁inneren	-7703
▁italien	-7704
▁	-7705
e	-7706
n	-7707
i	-7708
r	-7709
t	-7710
a	-7711
s	-7712
u	-7713
m	-7714
h	-7715
d	-7716
l	-7717
g	-7718
f	-7719
c	-7720
o	-7721
b	-7722
.	-7723
k	-7724
p	-7725
w	-7726
z	-7727
ä	-7728
v	-7729
,	-7730
ü	-7731
ß	-7732
j	-7733
-	-7734
ö	-7735
y	-7736
q	-7737
;	-7738
&	-7739
