<pad>	0
<bos>	0
<eos>	0
<unk>	0
<0x00>	0
<0x01>	0
<0x02>	0
<0x03>	0
<0x04>	0
<0x05>	0
<0x06>	0
<0x07>	0
<0x08>	0
<0x09>	0
<0x0A>	0
<0x0B>	0
<0x0C>	0
<0x0D>	0
<0x0E>	0
<0x0F>	0
<0x10>	0
<0x11>	0
<0x12>	0
<0x13>	0
<0x14>	0
<0x15>	0
<0x16>	0
<0x17>	0
<0x18>	0
<0x19>	0
<0x1A>	0
<0x1B>	0
<0x1C>	0
<0x1D>	0
<0x1E>	0
<0x1F>	0
<0x20>	0
<0x21>	0
<0x22>	0
<0x23>	0
<0x24>	0
<0x25>	0
<0x26>	0
<0x27>	0
<0x28>	0
<0x29>	0
<0x2A>	0
<0x2B>	0
<0x2C>	0
<0x2D>	0
<0x2E>	0
<0x2F>	0
<0x30>	0
<0x31>	0
<0x32>	0
<0x33>	0
<0x34>	0
<0x35>	0
<0x36>	0
<0x37>	0
<0x38>	0
<0x39>	0
<0x3A>	0
<0x3B>	0
<0x3C>	0
<0x3D>	0
<0x3E>	0
<0x3F>	0
<0x40>	0
<0x41>	0
<0x42>	0
<0x43>	0
<0x44>	0
<0x45>	0
<0x46>	0
<0x47>	0
<0x48>	0
<0x49>	0
<0x4A>	0
<0x4B>	0
<0x4C>	0
<0x4D>	0
<0x4E>	0
<0x4F>	0
<0x50>	0
<0x51>	0
<0x52>	0
<0x53>	0
<0x54>	0
<0x55>	0
<0x56>	0
<0x57>	0
<0x58>	0
<0x59>	0
<0x5A>	0
<0x5B>	0
<0x5C>	0
<0x5D>	0
<0x5E>	0
<0x5F>	0
<0x60>	0
<0x61>	0
<0x62>	0
<0x63>	0
<0x64>	0
<0x65>	0
<0x66>	0
<0x67>	0
<0x68>	0
<0x69>	0
<0x6A>	0
<0x6B>	0
<0x6C>	0
<0x6D>	0
<0x6E>	0
<0x6F>	0
<0x70>	0
<0x71>	0
<0x72>	0
<0x73>	0
<0x74>	0
<0x75>	0
<0x76>	0
<0x77>	0
<0x78>	0
<0x79>	0
<0x7A>	0
<0x7B>	0
<0x7C>	0
<0x7D>	0
<0x7E>	0
<0x7F>	0
<0x80>	0
<0x81>	0
<0x82>	0
<0x83>	0
<0x84>	0
<0x85>	0
<0x86>	0
<0x87>	0
<0x88>	0
<0x89>	0
<0x8A>	0
<0x8B>	0
<0x8C>	0
<0x8D>	0
<0x8E>	0
<0x8F>	0
<0x90>	0
<0x91>	0
<0x92>	0
<0x93>	0
<0x94>	0
<0x95>	0
<0x96>	0
<0x97>	0
<0x98>	0
<0x99>	0
<0x9A>	0
<0x9B>	0
<0x9C>	0
<0x9D>	0
<0x9E>	0
<0x9F>	0
<0xA0>	0
<0xA1>	0
<0xA2>	0
<0xA3>	0
<0xA4>	0
<0xA5>	0
<0xA6>	0
<0xA7>	0
<0xA8>	0
<0xA9>	0
<0xAA>	0
<0xAB>	0
<0xAC>	0
<0xAD>	0
<0xAE>	0
<0xAF>	0
<0xB0>	0
<0xB1>	0
<0xB2>	0
<0xB3>	0
<0xB4>	0
<0xB5>	0
<0xB6>	0
<0xB7>	0
<0xB8>	0
<0xB9>	0
<0xBA>	0
<0xBB>	0
<0xBC>	0
<0xBD>	0
<0xBE>	0
<0xBF>	0
<0xC0>	0
<0xC1>	0
<0xC2>	0
<0xC3>	0
<0xC4>	0
<0xC5>	0
<0xC6>	0
<0xC7>	0
<0xC8>	0
<0xC9>	0
<0xCA>	0
<0xCB>	0
<0xCC>	0
<0xCD>	0
<0xCE>	0
<0xCF>	0
<0xD0>	0
<0xD1>	0
<0xD2>	0
<0xD3>	0
<0xD4>	0
<0xD5>	0
<0xD6>	0
<0xD7>	0
<0xD8>	0
<0xD9>	0
<0xDA>	0
<0xDB>	0
<0xDC>	0
<0xDD>	0
<0xDE>	0
<0xDF>	0
<0xE0>	0
<0xE1>	0
<0xE2>	0
<0xE3>	0
<0xE4>	0
<0xE5>	0
<0xE6>	0
<0xE7>	0
<0xE8>	0
<0xE9>	0
<0xEA>	0
<0xEB>	0
<0xEC>	0
<0xED>	0
<0xEE>	0
<0xEF>	0
<0xF0>	0
<0xF1>	0
<0xF2>	0
<0xF3>	0
<0xF4>	0
<0xF5>	0
<0xF6>	0
<0xF7>	0
<0xF8>	0
<0xF9>	0
<0xFA>	0
<0xFB>	0
<0xFC>	0
<0xFD>	0
<0xFE>	0
<0xFF>	0
▁a	-0
in	-1
ing	-2
▁.	-3
▁s	-4
▁w	-5
th	-6
an	-7
▁o	-8
▁b	-9
re	-10
er	-11
▁in	-12
▁p	-13
▁m	-14
▁c	-15
▁th	-16
le	-17
hi	-18
▁t	-19
ro	-20
▁the	-21
ar	-22
nd	-23
▁g	-24
is	-25
▁on	-26
▁f	-27
▁d	-28
al	-29
▁h	-30
la	-31
en	-32
▁man	-33
▁is	-34
▁of	-35
▁and	-36
om	-37
at	-38
it	-39
▁st	-40
ck	-41
lo	-42
▁wi	-43
▁with	-44
es	-45
or	-46
ld	-47
un	-48
ir	-49
et	-50
on	-51
▁to	-52
▁wom	-53
id	-54
▁whi	-55
▁do	-56
and	-57
rou	-58
ed	-59
king	-60
op	-61
▁are	-62
▁,	-63
ra	-64
ear	-65
wo	-66
ch	-67
▁woman	-68
ss	-69
▁bo	-70
▁pla	-71
ic	-72
▁at	-73
all	-74
▁y	-75
eop	-76
eople	-77
two	-78
ts	-79
▁re	-80
▁play	-81
ers	-82
ting	-83
▁l	-84
te	-85
▁hi	-86
oun	-87
ge	-88
rt	-89
▁wear	-90
▁an	-91
▁wearing	-92
▁sit	-93
▁r	-94
▁stand	-95
▁people	-96
wn	-97
el	-98
hirt	-99
ide	-100
▁n	-101
st	-102
▁j	-103
ur	-104
▁ba	-105
oung	-106
ea	-107
▁lo	-108
gh	-109
▁ho	-110
▁shirt	-111
▁white	-112
▁co	-113
irl	-114
▁young	-115
▁wal	-116
um	-117
▁girl	-118
ue	-119
ut	-120
▁dog	-121
lack	-122
▁fro	-123
▁sh	-124
▁black	-125
lding	-126
▁boy	-127
▁bl	-128
▁his	-129
▁while	-130
ther	-131
▁wat	-132
▁blue	-133
oo	-134
us	-135
ce	-136
▁red	-137
ver	-138
▁grou	-139
ri	-140
▁sitting	-141
hild	-142
▁men	-143
up	-144
▁standing	-145
▁ro	-146
▁playing	-147
▁stre	-148
ad	-149
▁child	-150
il	-151
ard	-152
▁e	-153
▁loo	-154
am	-155
▁group	-156
▁street	-157
ve	-158
▁down	-159
ree	-160
nt	-161
ap	-162
▁walking	-163
▁la	-164
the	-165
se	-166
round	-167
ow	-168
▁as	-169
▁sm	-170
▁be	-171
▁her	-172
ome	-173
low	-174
▁front	-175
ll	-176
▁holding	-177
ks	-178
ke	-179
▁ta	-180
ress	-181
ent	-182
air	-183
to	-184
▁gra	-185
bo	-186
▁po	-187
▁k	-188
▁water	-189
ct	-190
▁out	-191
ion	-192
▁car	-193
▁dress	-194
as	-195
ie	-196
▁ch	-197
ying	-198
ain	-199
▁by	-200
▁bu	-201
im	-202
one	-203
ump	-204
tle	-205
▁for	-206
▁up	-207
▁ra	-208
▁some	-209
reen	-210
▁run	-211
ay	-212
uts	-213
▁ne	-214
ack	-215
▁back	-216
▁wor	-217
ark	-218
red	-219
▁jump	-220
uit	-221
▁green	-222
▁women	-223
▁one	-224
ittle	-225
▁sw	-226
for	-227
row	-228
ght	-229
▁outs	-230
▁sk	-231
▁looking	-232
▁hat	-233
▁sn	-234
▁mo	-235
▁outside	-236
▁rid	-237
form	-238
ind	-239
▁le	-240
▁bro	-241
ble	-242
three	-243
ood	-244
arge	-245
ren	-246
▁little	-247
▁ma	-248
each	-249
rough	-250
▁v	-251
▁bi	-252
▁side	-253
▁large	-254
▁through	-255
ball	-256
ul	-257
ellow	-258
▁&	-259
▁or	-260
▁sp	-261
▁snow	-262
▁ball	-263
▁brown	-264
▁yellow	-265
▁two	-266
erson	-267
▁over	-268
▁tra	-269
lass	-270
yc	-271
ian	-272
▁from	-273
ure	-274
▁their	-275
man	-276
▁into	-277
▁con	-278
▁person	-279
▁pa	-280
ly	-281
ning	-282
xt	-283
▁watch	-284
▁hand	-285
lder	-286
▁bui	-287
ng	-288
em	-289
▁building	-290
ink	-291
alk	-292
▁children	-293
ph	-294
▁next	-295
thing	-296
▁other	-297
▁small	-298
rowd	-299
▁near	-300
▁jack	-301
ig	-302
▁dressed	-303
▁so	-304
os	-305
les	-306
▁crowd	-307
▁jacket	-308
ho	-309
qu	-310
ight	-311
▁grass	-312
ving	-313
ore	-314
▁clo	-315
dy	-316
board	-317
ground	-318
ate	-319
walk	-320
▁it	-321
▁wa	-322
▁riding	-323
▁running	-324
age	-325
people	-326
other	-327
▁sc	-328
ange	-329
▁off	-330
▁around	-331
▁another	-332
ead	-333
ep	-334
▁fa	-335
ount	-336
ield	-337
cer	-338
▁field	-339
ru	-340
▁table	-341
▁sidewalk	-342
▁go	-343
lasses	-344
ff	-345
ity	-346
▁beach	-347
▁cam	-348
▁orange	-349
ick	-350
▁air	-351
rying	-352
ist	-353
▁se	-354
ross	-355
ine	-356
ot	-357
ture	-358
▁stands	-359
apos	-360
▁pink	-361
▁per	-362
▁sits	-363
▁jumping	-364
▁beh	-365
▁behind	-366
▁blo	-367
▁work	-368
▁sun	-369
iling	-370
ter	-371
▁un	-372
ice	-373
▁perform	-374
▁pic	-375
way	-376
▁background	-377
ycle	-378
▁park	-379
ans	-380
▁cl	-381
pp	-382
und	-383
ating	-384
by	-385
▁com	-386
▁tal	-387
▁head	-388
▁top	-389
▁city	-390
▁bike	-391
▁rock	-392
▁wall	-393
▁read	-394
cing	-395
ves	-396
do	-397
our	-398
▁player	-399
▁girls	-400
ire	-401
▁picture	-402
▁dr	-403
▁li	-404
ud	-405
▁alo	-406
▁bic	-407
▁looks	-408
ame	-409
▁camer	-410
ling	-411
▁shor	-412
uitar	-413
▁sur	-414
▁guitar	-415
▁par	-416
▁dan	-417
veral	-418
▁that	-419
▁bus	-420
▁hair	-421
ool	-422
ountain	-423
▁dogs	-424
ub	-425
ish	-426
irt	-427
▁camera	-428
▁gu	-429
▁wood	-430
▁asian	-431
ol	-432
ors	-433
▁ac	-434
▁ar	-435
▁talking	-436
▁mid	-437
mp	-438
▁something	-439
▁hold	-440
ant	-441
ccer	-442
▁older	-443
phone	-444
▁walk	-445
▁along	-446
▁walks	-447
ants	-448
dle	-449
oot	-450
▁food	-451
▁lady	-452
▁soccer	-453
▁hel	-454
▁toge	-455
▁together	-456
▁bri	-457
▁blond	-458
▁working	-459
▁colo	-460
▁skate	-461
▁boys	-462
▁gray	-463
▁ad	-464
est	-465
▁ben	-466
ket	-467
▁uni	-468
▁smiling	-469
ign	-470
ive	-471
kes	-472
▁him	-473
gg	-474
ip	-475
ction	-476
ys	-477
▁sho	-478
▁has	-479
▁game	-480
▁us	-481
▁them	-482
▁road	-483
▁bench	-484
▁plays	-485
ee	-486
ull	-487
▁uniform	-488
▁je	-489
imb	-490
▁comp	-491
▁holds	-492
atch	-493
▁pre	-494
▁sand	-495
umb	-496
ation	-497
four	-498
▁br	-499
▁swim	-500
▁climb	-501
▁skateboard	-502
gs	-503
eat	-504
ale	-505
▁und	-506
are	-507
▁wh	-508
▁kid	-509
▁pants	-510
▁glasses	-511
▁under	-512
▁shorts	-513
▁boo	-514
▁suit	-515
▁en	-516
▁coup	-517
▁stage	-518
led	-519
▁pur	-520
▁carrying	-521
▁dirt	-522
▁pain	-523
▁abo	-524
▁get	-525
eam	-526
▁pro	-527
pe	-528
ful	-529
▁he	-530
ward	-531
▁pos	-532
ha	-533
ped	-534
▁ha	-535
ell	-536
▁baby	-537
▁couple	-538
shirt	-539
▁tree	-540
▁mountain	-541
▁base	-542
▁outdo	-543
▁flo	-544
▁face	-545
▁bicycle	-546
▁sing	-547
▁wait	-548
▁tan	-549
▁fem	-550
mer	-551
quot	-552
▁bal	-553
▁bas	-554
several	-555
▁old	-556
▁hor	-557
▁long	-558
▁pool	-559
▁tri	-560
▁stri	-561
▁jumps	-562
▁foot	-563
ies	-564
▁boat	-565
▁taking	-566
▁fl	-567
▁race	-568
▁mic	-569
▁each	-570
▁sign	-571
▁basket	-572
▁shop	-573
▁chair	-574
▁ga	-575
▁mus	-576
▁doing	-577
▁dark	-578
▁coat	-579
tor	-580
▁ca	-581
▁micro	-582
▁middle	-583
uth	-584
ust	-585
▁team	-586
▁across	-587
▁watching	-588
ican	-589
uring	-590
ach	-591
▁ve	-592
▁jeans	-593
▁te	-594
▁day	-595
▁area	-596
▁male	-597
▁pho	-598
▁photo	-599
▁hands	-600
ping	-601
▁che	-602
ag	-603
met	-604
ple	-605
▁band	-606
▁store	-607
▁helmet	-608
ence	-609
▁who	-610
ft	-611
▁horse	-612
▁motor	-613
▁ground	-614
▁wind	-615
▁bar	-616
▁room	-617
▁performing	-618
▁swing	-619
▁ex	-620
▁surf	-621
stru	-622
ired	-623
▁eating	-624
ush	-625
▁female	-626
jo	-627
▁arm	-628
▁being	-629
▁sweat	-630
▁baseball	-631
ess	-632
▁guy	-633
eel	-634
▁af	-635
side	-636
ect	-637
▁de	-638
▁color	-639
▁mouth	-640
▁music	-641
▁op	-642
▁mar	-643
▁using	-644
▁football	-645
▁rest	-646
▁ten	-647
wom	-648
▁striped	-649
▁set	-650
▁purple	-651
itch	-652
glasses	-653
men	-654
ey	-655
sh	-656
cks	-657
▁sl	-658
▁look	-659
▁prep	-660
▁toward	-661
ry	-662
nis	-663
ment	-664
ming	-665
▁fish	-666
▁ob	-667
dd	-668
aper	-669
▁enjo	-670
▁runs	-671
▁train	-672
▁window	-673
rel	-674
▁she	-675
▁adul	-676
▁cross	-677
struction	-678
▁ag	-679
▁tre	-680
haired	-681
ere	-682
young	-683
▁tennis	-684
▁reading	-685
▁sunglasses	-686
oking	-687
▁past	-688
iv	-689
▁clothing	-690
ner	-691
▁can	-692
▁shi	-693
▁three	-694
▁players	-695
▁microphone	-696
▁toy	-697
there	-698
aur	-699
▁app	-700
▁oce	-701
vered	-702
▁cap	-703
▁fla	-704
▁flow	-705
▁its	-706
aring	-707
▁ocean	-708
▁basketball	-709
▁catch	-710
▁ri	-711
▁dri	-712
ade	-713
▁sa	-714
ance	-715
▁show	-716
▁fore	-717
▁watches	-718
fe	-719
▁during	-720
▁motorc	-721
leep	-722
▁kids	-723
▁outf	-724
▁pass	-725
▁restaur	-726
▁mark	-727
▁bright	-728
▁climbing	-729
ents	-730
lderly	-731
▁again	-732
▁cloth	-733
use	-734
▁fire	-735
▁restaurant	-736
▁fr	-737
ile	-738
▁part	-739
ix	-740
rts	-741
▁cou	-742
▁outfit	-743
▁against	-744
▁stick	-745
ging	-746
ted	-747
▁kn	-748
▁umb	-749
rella	-750
▁dancing	-751
▁umbrella	-752
ley	-753
▁bow	-754
▁hill	-755
▁elderly	-756
str	-757
▁new	-758
▁open	-759
▁rides	-760
▁throw	-761
ces	-762
very	-763
▁high	-764
▁bag	-765
ated	-766
kers	-767
▁des	-768
thers	-769
▁wooden	-770
▁trees	-771
▁posing	-772
▁all	-773
▁about	-774
▁having	-775
▁market	-776
▁outdoor	-777
▁covered	-778
▁they	-779
▁drin	-780
▁waiting	-781
▁cost	-782
▁swimming	-783
ort	-784
ruck	-785
▁getting	-786
▁bear	-787
utting	-788
▁floor	-789
▁costum	-790
vel	-791
▁construction	-792
io	-793
ugh	-794
aning	-795
▁trying	-796
ily	-797
vers	-798
▁lea	-799
▁workers	-800
ycl	-801
▁hu	-802
▁pol	-803
▁very	-804
▁cle	-805
▁dis	-806
▁ice	-807
ial	-808
▁met	-809
▁busy	-810
▁colorful	-811
▁cell	-812
▁fence	-813
▁night	-814
▁shirts	-815
▁singing	-816
woman	-817
▁cart	-818
strum	-819
▁instrum	-820
this	-821
▁book	-822
iff	-823
ler	-824
ition	-825
▁path	-826
ron	-827
ier	-828
▁fe	-829
▁att	-830
▁stair	-831
▁compet	-832
ject	-833
some	-834
▁light	-835
less	-836
▁han	-837
▁ev	-838
▁line	-839
itchen	-840
▁board	-841
▁laying	-842
▁kitchen	-843
▁sleep	-844
co	-845
gra	-846
▁pie	-847
▁truck	-848
ker	-849
pack	-850
▁body	-851
▁hats	-852
▁ride	-853
▁paper	-854
▁clothes	-855
ash	-856
boy	-857
▁beard	-858
▁inside	-859
▁others	-860
cket	-861
▁cellphone	-862
▁kick	-863
▁grassy	-864
▁making	-865
▁surround	-866
▁river	-867
hone	-868
▁push	-869
▁roll	-870
▁brick	-871
▁backpack	-872
▁art	-873
▁big	-874
▁full	-875
▁mach	-876
▁takes	-877
▁track	-878
▁metal	-879
br	-880
od	-881
wing	-882
▁laugh	-883
▁towards	-884
▁motorcycle	-885
ding	-886
▁cre	-887
▁step	-888
▁enjoying	-889
sc	-890
als	-891
▁cow	-892
graph	-893
iz	-894
ny	-895
▁ind	-896
pla	-897
▁tank	-898
▁cor	-899
▁sub	-900
▁ready	-901
rie	-902
▁am	-903
able	-904
unch	-905
▁hard	-906
cor	-907
▁al	-908
ckey	-909
five	-910
ines	-911
▁jo	-912
child	-913
▁drum	-914
ak	-915
iles	-916
▁atte	-917
▁piece	-918
▁sweater	-919
▁painting	-920
ne	-921
cle	-922
▁lake	-923
▁trick	-924
sp	-925
▁pl	-926
▁tr	-927
▁pull	-928
▁above	-929
▁count	-930
▁several	-931
▁photograph	-932
na	-933
we	-934
ong	-935
rican	-936
▁amer	-937
ird	-938
▁going	-939
▁box	-940
iving	-941
thered	-942
▁stone	-943
▁wheel	-944
ons	-945
ved	-946
▁me	-947
▁bes	-948
▁brid	-949
▁many	-950
▁dance	-951
▁snowy	-952
▁colored	-953
▁vest	-954
▁wave	-955
▁class	-956
▁police	-957
▁shopping	-958
ium	-959
riend	-960
▁onto	-961
▁uniforms	-962
▁surrounded	-963
ym	-964
▁no	-965
ones	-966
room	-967
▁bea	-968
▁gather	-969
▁worker	-970
ists	-971
▁dra	-972
▁sha	-973
elling	-974
▁snowboard	-975
de	-976
▁bot	-977
▁cra	-978
▁pra	-979
▁smiles	-980
▁crowded	-981
▁outdoors	-982
▁bre	-983
▁todd	-984
▁beside	-985
▁convers	-986
▁gri	-987
ching	-988
▁gear	-989
▁stud	-990
▁house	-991
▁adults	-992
iss	-993
ates	-994
▁fil	-995
▁pole	-996
▁rain	-997
▁african	-998
▁drinking	-999
ps	-1000
▁tur	-1001
amily	-1002
▁poin	-1003
▁subway	-1004
igh	-1005
uti	-1006
▁after	-1007
▁phone	-1008
ary	-1009
▁teen	-1010
▁american	-1011
iew	-1012
▁ele	-1013
ement	-1014
▁event	-1015
▁fountain	-1016
▁gathered	-1017
ult	-1018
stic	-1019
▁leap	-1020
▁hanging	-1021
kin	-1022
▁door	-1023
▁spea	-1024
▁bridge	-1025
▁ap	-1026
ffit	-1027
▁gym	-1028
▁lap	-1029
gging	-1030
▁arms	-1031
utiful	-1032
▁ballo	-1033
▁carri	-1034
▁family	-1035
▁friend	-1036
▁flowers	-1037
▁vol	-1038
ening	-1039
▁away	-1040
▁hockey	-1041
▁graffit	-1042
▁toddler	-1043
▁preparing	-1044
▁ey	-1045
bble	-1046
ears	-1047
many	-1048
▁lot	-1049
▁ski	-1050
▁comput	-1051
▁object	-1052
▁costume	-1053
▁leaning	-1054
ats	-1055
sel	-1056
aged	-1057
hair	-1058
ious	-1059
▁guys	-1060
▁make	-1061
▁take	-1062
▁offic	-1063
▁short	-1064
▁steps	-1065
▁attemp	-1066
▁forest	-1067
▁sleeping	-1068
ane	-1069
ime	-1070
▁does	-1071
▁trail	-1072
▁fishing	-1073
▁machine	-1074
▁graffiti	-1075
ca	-1076
roll	-1077
▁rope	-1078
▁plaid	-1079
▁shoes	-1080
children	-1081
▁prepare	-1082
▁beautiful	-1083
ty	-1084
get	-1085
lic	-1086
▁four	-1087
wor	-1088
ster	-1089
suit	-1090
▁equ	-1091
▁win	-1092
▁adult	-1093
▁conc	-1094
▁like	-1095
▁court	-1096
▁grill	-1097
▁stairs	-1098
app	-1099
art	-1100
▁squ	-1101
entle	-1102
be	-1103
▁lad	-1104
▁pub	-1105
▁jers	-1106
▁pract	-1107
▁sunny	-1108
▁selling	-1109
▁shirtless	-1110
arf	-1111
ring	-1112
ering	-1113
▁cont	-1114
▁tall	-1115
▁glass	-1116
▁rocks	-1117
▁setting	-1118
▁bet	-1119
▁hit	-1120
▁sky	-1121
▁fris	-1122
▁numb	-1123
yclist	-1124
bee	-1125
con	-1126
▁cup	-1127
▁opp	-1128
▁sil	-1129
iting	-1130
▁pose	-1131
▁shou	-1132
▁stat	-1133
▁view	-1134
▁gentle	-1135
▁racing	-1136
▁volley	-1137
att	-1138
▁cur	-1139
▁wet	-1140
ycles	-1141
▁both	-1142
▁list	-1143
▁chairs	-1144
▁parade	-1145
▁stroll	-1146
▁putting	-1147
▁volleyball	-1148
▁blow	-1149
▁chas	-1150
▁match	-1151
▁corner	-1152
▁frisbee	-1153
▁pushing	-1154
▁throwing	-1155
ween	-1156
▁flag	-1157
▁have	-1158
▁kiss	-1159
▁ramp	-1160
▁stop	-1161
▁drink	-1162
▁slide	-1163
▁public	-1164
▁between	-1165
ill	-1166
▁couch	-1167
▁equip	-1168
▁ladies	-1169
▁computer	-1170
▁laughing	-1171
eep	-1172
ery	-1173
▁fo	-1174
ined	-1175
cture	-1176
▁dist	-1177
▁vehi	-1178
▁vend	-1179
▁fruit	-1180
▁works	-1181
▁someone	-1182
▁equipment	-1183
▁instruments	-1184
chool	-1185
▁pick	-1186
▁rail	-1187
▁scen	-1188
▁displa	-1189
▁pictures	-1190
rete	-1191
▁bed	-1192
▁gar	-1193
▁glo	-1194
▁pat	-1195
cking	-1196
▁home	-1197
▁woods	-1198
▁bottle	-1199
▁plastic	-1200
▁wr	-1201
ical	-1202
▁gold	-1203
▁party	-1204
▁poses	-1205
▁reach	-1206
▁which	-1207
▁concrete	-1208
▁playground	-1209
▁sweatshirt	-1210
ope	-1211
girl	-1212
rest	-1213
▁but	-1214
▁cig	-1215
▁bird	-1216
▁dock	-1217
▁hood	-1218
▁stru	-1219
phones	-1220
▁statue	-1221
ems	-1222
ally	-1223
ches	-1224
▁pad	-1225
ggles	-1226
▁yard	-1227
▁midair	-1228
▁winter	-1229
ac	-1230
ught	-1231
▁mas	-1232
▁net	-1233
▁shovel	-1234
ert	-1235
ite	-1236
loo	-1237
out	-1238
▁bat	-1239
▁res	-1240
ining	-1241
▁just	-1242
▁bikes	-1243
▁skirt	-1244
▁veget	-1245
▁bucket	-1246
▁cowboy	-1247
▁number	-1248
bor	-1249
ests	-1250
▁emp	-1251
▁roo	-1252
ators	-1253
ience	-1254
▁anim	-1255
▁shore	-1256
▁school	-1257
uff	-1258
▁happ	-1259
▁wash	-1260
▁apron	-1261
▁cream	-1262
▁reads	-1263
▁attire	-1264
▁seated	-1265
▁station	-1266
let	-1267
▁ed	-1268
ater	-1269
ctor	-1270
▁aud	-1271
▁beer	-1272
▁fall	-1273
▁left	-1274
▁slid	-1275
▁spor	-1276
▁stra	-1277
▁distance	-1278
cl	-1279
▁vi	-1280
▁we	-1281
▁ser	-1282
▁blan	-1283
▁what	-1284
▁kneel	-1285
▁where	-1286
▁cooking	-1287
▁cutting	-1288
ber	-1289
ned	-1290
ric	-1291
head	-1292
▁bags	-1293
▁tent	-1294
▁cliff	-1295
▁newsp	-1296
▁vests	-1297
▁pulling	-1298
▁buildings	-1299
ban	-1300
ese	-1301
fet	-1302
lee	-1303
top	-1304
aret	-1305
▁hot	-1306
attoo	-1307
▁plat	-1308
little	-1309
▁rider	-1310
▁cigaret	-1311
▁vegetable	-1312
ns	-1313
arm	-1314
▁var	-1315
▁bowl	-1316
▁wrest	-1317
▁tattoo	-1318
▁appears	-1319
▁practic	-1320
▁ban	-1321
▁ent	-1322
▁inf	-1323
orses	-1324
▁bare	-1325
▁edge	-1326
▁rela	-1327
▁blanket	-1328
▁showing	-1329
▁crossing	-1330
▁mountains	-1331
▁instrument	-1332
▁paint	-1333
▁scarf	-1334
▁spect	-1335
▁bubble	-1336
▁jersey	-1337
▁roller	-1338
▁structure	-1339
asian	-1340
nding	-1341
▁land	-1342
▁mart	-1343
▁elect	-1344
▁right	-1345
▁concer	-1346
▁filled	-1347
▁horses	-1348
▁nearby	-1349
▁performs	-1350
ug	-1351
cal	-1352
ens	-1353
▁few	-1354
▁fix	-1355
ading	-1356
▁goal	-1357
yclists	-1358
▁bowling	-1359
▁carries	-1360
▁concert	-1361
▁driving	-1362
▁musician	-1363
ins	-1364
ffee	-1365
grou	-1366
ings	-1367
▁flip	-1368
▁break	-1369
▁leaves	-1370
▁friends	-1371
ath	-1372
key	-1373
ven	-1374
▁ce	-1375
▁gr	-1376
▁col	-1377
▁sea	-1378
▁cars	-1379
▁mult	-1380
▁bikin	-1381
▁boots	-1382
▁smile	-1383
▁coffee	-1384
▁parked	-1385
▁vendor	-1386
▁cigarette	-1387
du	-1388
ser	-1389
ival	-1390
ives	-1391
▁mud	-1392
women	-1393
▁bull	-1394
person	-1395
▁lined	-1396
▁flower	-1397
▁display	-1398
▁goggles	-1399
▁vehicle	-1400
▁snowboarder	-1401
set	-1402
▁ath	-1403
▁cla	-1404
pping	-1405
▁form	-1406
▁ladd	-1407
▁spla	-1408
▁alley	-1409
▁drums	-1410
▁talks	-1411
▁martial	-1412
▁painted	-1413
▁railing	-1414
▁smoking	-1415
▁skateboarder	-1416
deo	-1417
ivid	-1418
pped	-1419
▁exp	-1420
▁diff	-1421
▁dire	-1422
▁eyes	-1423
▁time	-1424
▁flags	-1425
▁lying	-1426
▁rocky	-1427
▁flying	-1428
▁dresses	-1429
ugg	-1430
▁qu	-1431
cord	-1432
fety	-1433
▁mon	-1434
group	-1435
▁arts	-1436
▁roof	-1437
▁shot	-1438
▁bunch	-1439
▁relax	-1440
▁waves	-1441
looking	-1442
▁mother	-1443
▁safety	-1444
▁splash	-1445
▁bathing	-1446
▁jackets	-1447
▁kicking	-1448
▁parking	-1449
▁younger	-1450
▁prepares	-1451
▁swinging	-1452
▁gentleman	-1453
▁newspaper	-1454
▁conversation	-1455
ige	-1456
ise	-1457
rown	-1458
▁dig	-1459
▁ear	-1460
▁mil	-1461
▁pot	-1462
erent	-1463
itary	-1464
▁pres	-1465
▁close	-1466
▁pitch	-1467
▁gloves	-1468
▁costumes	-1469
▁practicing	-1470
▁spectators	-1471
if	-1472
mo	-1473
ike	-1474
upp	-1475
▁fun	-1476
▁rep	-1477
▁this	-1478
▁uses	-1479
▁onloo	-1480
▁oppos	-1481
▁ladder	-1482
▁cleaning	-1483
▁different	-1484
▁listening	-1485
▁competition	-1486
ctive	-1487
▁coll	-1488
▁spra	-1489
▁items	-1490
▁scene	-1491
▁there	-1492
▁bearded	-1493
▁staring	-1494
▁skateboarding	-1495
ail	-1496
ids	-1497
nel	-1498
pes	-1499
ales	-1500
ural	-1501
▁ham	-1502
▁row	-1503
ividu	-1504
▁bath	-1505
▁desk	-1506
▁lawn	-1507
▁mask	-1508
▁meal	-1509
▁pile	-1510
▁empty	-1511
▁rodeo	-1512
▁bikini	-1513
▁giving	-1514
▁surfer	-1515
▁balloon	-1516
▁various	-1517
▁audience	-1518
▁bicycles	-1519
▁surfboard	-1520
cu	-1521
ape	-1522
old	-1523
▁yo	-1524
ette	-1525
ized	-1526
▁fol	-1527
▁lit	-1528
▁spe	-1529
▁tow	-1530
▁wed	-1531
▁ligh	-1532
▁among	-1533
▁leaps	-1534
someone	-1535
▁drinks	-1536
▁onlookers	-1537
bb	-1538
ays	-1539
enc	-1540
nic	-1541
fore	-1542
vert	-1543
▁kay	-1544
▁tub	-1545
cting	-1546
iness	-1547
lored	-1548
▁cake	-1549
▁check	-1550
▁silver	-1551
▁sports	-1552
▁sliding	-1553
▁platform	-1554
▁pointing	-1555
▁gathering	-1556
▁vegetables	-1557
gu	-1558
cts	-1559
ger	-1560
ulp	-1561
▁da	-1562
▁pr	-1563
ered	-1564
foot	-1565
yard	-1566
▁cal	-1567
▁mem	-1568
▁feet	-1569
▁sold	-1570
▁viol	-1571
▁obser	-1572
▁suits	-1573
▁cement	-1574
▁facing	-1575
▁indian	-1576
▁teenag	-1577
▁streets	-1578
▁wedding	-1579
▁business	-1580
ga	-1581
ken	-1582
six	-1583
▁im	-1584
▁cir	-1585
▁med	-1586
▁tro	-1587
▁neck	-1588
▁rais	-1589
▁star	-1590
▁trad	-1591
▁biker	-1592
▁before	-1593
▁waters	-1594
▁helmets	-1595
▁individu	-1596
▁speaking	-1597
▁competing	-1598
vy	-1599
ely	-1600
ton	-1601
▁ur	-1602
cers	-1603
▁din	-1604
▁int	-1605
▁leg	-1606
▁tie	-1607
▁fing	-1608
▁gets	-1609
▁huge	-1610
▁incl	-1611
▁sculp	-1612
▁sweep	-1613
▁teams	-1614
▁coming	-1615
▁laptop	-1616
▁students	-1617
▁classroom	-1618
▁tradition	-1619
ace	-1620
mas	-1621
eath	-1622
rist	-1623
urse	-1624
▁bur	-1625
allow	-1626
athon	-1627
▁garb	-1628
▁produ	-1629
▁purse	-1630
▁sings	-1631
▁tries	-1632
ighting	-1633
▁climbs	-1634
▁screen	-1635
▁surfing	-1636
▁traditional	-1637
ia	-1638
ched	-1639
irro	-1640
lete	-1641
read	-1642
▁airp	-1643
▁cano	-1644
▁crou	-1645
▁talk	-1646
▁bride	-1647
▁brush	-1648
▁clown	-1649
▁mirro	-1650
▁animal	-1651
▁violin	-1652
▁chasing	-1653
▁counter	-1654
▁kissing	-1655
▁military	-1656
case	-1657
▁end	-1658
▁ref	-1659
▁tee	-1660
▁card	-1661
▁same	-1662
▁sled	-1663
▁trun	-1664
▁country	-1665
▁walkway	-1666
▁writing	-1667
▁fighting	-1668
▁stroller	-1669
ico	-1670
ops	-1671
res	-1672
spe	-1673
uck	-1674
▁ty	-1675
band	-1676
icip	-1677
▁chi	-1678
▁gun	-1679
▁har	-1680
▁slo	-1681
▁sto	-1682
ooter	-1683
ustom	-1684
▁cand	-1685
▁chef	-1686
▁exam	-1687
▁gard	-1688
▁life	-1689
▁vide	-1690
▁decor	-1691
▁skier	-1692
▁waits	-1693
▁artist	-1694
▁sunset	-1695
▁females	-1696
▁kneeling	-1697
▁shoulder	-1698
ki	-1699
▁son	-1700
▁tou	-1701
▁tun	-1702
▁wra	-1703
erman	-1704
▁indo	-1705
▁shad	-1706
▁sort	-1707
▁tire	-1708
ession	-1709
▁cheer	-1710
▁place	-1711
ristmas	-1712
▁father	-1713
▁mirror	-1714
▁runner	-1715
▁waving	-1716
▁barefoot	-1717
▁marathon	-1718
▁attempting	-1719
lf	-1720
me	-1721
ok	-1722
▁cr	-1723
▁ea	-1724
ator	-1725
▁bra	-1726
▁cas	-1727
▁cut	-1728
▁wea	-1729
▁seen	-1730
▁balan	-1731
▁enjoy	-1732
▁happy	-1733
▁inter	-1734
▁leash	-1735
▁makes	-1736
▁signs	-1737
▁blowing	-1738
▁outfits	-1739
▁electric	-1740
▁christmas	-1741
aff	-1742
els	-1743
ied	-1744
cuss	-1745
iant	-1746
lebr	-1747
▁cat	-1748
▁gre	-1749
▁hea	-1750
inese	-1751
▁golf	-1752
▁padd	-1753
▁says	-1754
vertis	-1755
▁chain	-1756
▁gymna	-1757
▁celebr	-1758
▁course	-1759
▁tables	-1760
▁bubbles	-1761
▁multico	-1762
▁officer	-1763
▁project	-1764
▁scooter	-1765
▁washing	-1766
▁advertis	-1767
▁particip	-1768
▁overlooking	-1769
ute	-1770
ular	-1771
▁bald	-1772
▁hole	-1773
▁meat	-1774
▁sell	-1775
▁stun	-1776
▁tool	-1777
▁cover	-1778
▁leans	-1779
▁urban	-1780
▁collar	-1781
▁fixing	-1782
▁follow	-1783
▁lights	-1784
▁square	-1785
▁skating	-1786
▁balloons	-1787
sm	-1788
der	-1789
ung	-1790
alle	-1791
full	-1792
▁eng	-1793
▁nat	-1794
▁not	-1795
▁pea	-1796
chair	-1797
▁cafe	-1798
▁five	-1799
▁good	-1800
▁oper	-1801
▁pier	-1802
▁tour	-1803
unette	-1804
▁alone	-1805
▁faces	-1806
▁giant	-1807
▁discuss	-1808
▁helping	-1809
▁leather	-1810
▁microsc	-1811
▁brightly	-1812
▁musicians	-1813
▁umbrellas	-1814
▁foreground	-1815
▁i	-1816
ous	-1817
ners	-1818
vice	-1819
▁gro	-1820
▁ped	-1821
arate	-1822
fully	-1823
▁legs	-1824
▁made	-1825
▁site	-1826
▁stad	-1827
▁well	-1828
▁canoe	-1829
▁plate	-1830
▁asleep	-1831
▁waterf	-1832
▁chinese	-1833
▁sculpture	-1834
▁headphones	-1835
construction	-1836
za	-1837
zz	-1838
▁pe	-1839
lage	-1840
tion	-1841
▁sus	-1842
lders	-1843
▁chur	-1844
▁trash	-1845
▁video	-1846
▁wears	-1847
▁custom	-1848
▁diving	-1849
▁grocer	-1850
▁office	-1851
▁repair	-1852
▁sticks	-1853
▁swings	-1854
▁doorway	-1855
▁drawing	-1856
▁passing	-1857
▁sandals	-1858
▁stadium	-1859
bs	-1860
▁;	-1861
ffic	-1862
lead	-1863
lesc	-1864
work	-1865
▁fur	-1866
▁pet	-1867
▁way	-1868
estri	-1869
▁hall	-1870
▁prin	-1871
▁toys	-1872
ughter	-1873
▁booth	-1874
▁heads	-1875
▁stuff	-1876
cordion	-1877
▁string	-1878
▁falling	-1879
▁musical	-1880
▁officers	-1881
▁accordion	-1882
▁multicolored	-1883
amp	-1884
com	-1885
ges	-1886
ony	-1887
que	-1888
ral	-1889
bers	-1890
▁fin	-1891
▁mat	-1892
▁mix	-1893
▁mom	-1894
▁smo	-1895
ached	-1896
▁pack	-1897
▁prof	-1898
▁dirty	-1899
▁church	-1900
▁includ	-1901
▁skiing	-1902
▁throws	-1903
▁picking	-1904
▁shallow	-1905
▁teenage	-1906
▁reaching	-1907
▁performance	-1908
▁photographer	-1909
back	-1910
cial	-1911
ness	-1912
orch	-1913
▁ass	-1914
▁eat	-1915
▁kha	-1916
▁lab	-1917
stand	-1918
▁pond	-1919
▁prot	-1920
▁below	-1921
▁block	-1922
▁clean	-1923
▁laund	-1924
▁males	-1925
▁prote	-1926
▁straw	-1927
▁teach	-1928
▁hiking	-1929
▁digging	-1930
▁present	-1931
▁traffic	-1932
mb	-1933
so	-1934
▁z	-1935
ase	-1936
dog	-1937
fts	-1938
▁mu	-1939
alls	-1940
here	-1941
▁fra	-1942
▁log	-1943
▁nap	-1944
▁pul	-1945
▁spr	-1946
▁van	-1947
▁vis	-1948
uddle	-1949
▁atop	-1950
▁dish	-1951
▁move	-1952
▁shoe	-1953
▁soft	-1954
▁tack	-1955
▁gives	-1956
▁inspe	-1957
▁garden	-1958
▁passes	-1959
▁tunnel	-1960
▁upside	-1961
▁catches	-1962
▁hugging	-1963
▁catching	-1964
▁relaxing	-1965
▁direction	-1966
▁microscope	-1967
whi	-1968
slee	-1969
▁act	-1970
▁fan	-1971
▁pin	-1972
▁fair	-1973
▁fest	-1974
▁lift	-1975
▁balls	-1976
▁beige	-1977
▁shows	-1978
▁stunt	-1979
▁suspe	-1980
▁singer	-1981
▁sleeps	-1982
▁dancers	-1983
▁leaping	-1984
▁brunette	-1985
▁sweeping	-1986
dge	-1987
its	-1988
sed	-1989
ront	-1990
▁dun	-1991
▁eye	-1992
▁fre	-1993
▁ori	-1994
cross	-1995
light	-1996
▁cent	-1997
▁cold	-1998
▁hose	-1999
▁post	-2000
▁pupp	-2001
▁appro	-2002
▁coats	-2003
▁fight	-2004
▁flies	-2005
▁round	-2006
▁scaff	-2007
▁speed	-2008
▁stret	-2009
▁teeth	-2010
▁desert	-2011
▁hammer	-2012
▁hoodie	-2013
▁stream	-2014
▁telesc	-2015
▁tracks	-2016
▁trunks	-2017
▁resting	-2018
▁daughter	-2019
▁swimsuit	-2020
▁conversing	-2021
bla	-2022
bly	-2023
ork	-2024
ret	-2025
ages	-2026
gers	-2027
ient	-2028
▁how	-2029
▁sax	-2030
▁ter	-2031
ental	-2032
neath	-2033
wards	-2034
▁held	-2035
▁mess	-2036
▁must	-2037
▁town	-2038
▁colle	-2039
▁guard	-2040
▁stack	-2041
▁balcon	-2042
▁finish	-2043
▁karate	-2044
▁plants	-2045
▁points	-2046
▁racket	-2047
▁contain	-2048
▁jogging	-2049
▁suspend	-2050
▁splashing	-2051
▁telescope	-2052
▁wrestling	-2053
▁underneath	-2054
elf	-2055
gaz	-2056
nds	-2057
shi	-2058
▁es	-2059
lers	-2060
▁ret	-2061
allen	-2062
arrow	-2063
fight	-2064
nival	-2065
oline	-2066
▁bush	-2067
▁cane	-2068
▁deep	-2069
▁hear	-2070
▁help	-2071
▁hula	-2072
▁shoo	-2073
▁wine	-2074
selves	-2075
▁books	-2076
▁curly	-2077
▁magaz	-2078
▁spray	-2079
▁tramp	-2080
workers	-2081
▁athlet	-2082
▁moving	-2083
▁passen	-2084
▁underw	-2085
▁without	-2086
▁including	-2087
▁shoulders	-2088
▁themselves	-2089
alm	-2090
bes	-2091
eys	-2092
haw	-2093
ino	-2094
▁na	-2095
kids	-2096
line	-2097
▁bel	-2098
▁cri	-2099
▁hur	-2100
▁low	-2101
black	-2102
small	-2103
▁deck	-2104
▁kind	-2105
▁hiker	-2106
▁mural	-2107
▁sheet	-2108
▁taken	-2109
▁crying	-2110
▁dinner	-2111
▁makeup	-2112
▁pulled	-2113
▁tricks	-2114
▁wooded	-2115
▁cyclist	-2116
▁produce	-2117
▁wetsuit	-2118
▁carnival	-2119
▁matching	-2120
▁opposing	-2121
▁bicyclist	-2122
▁crosswalk	-2123
▁trampoline	-2124
▁individuals	-2125
ba	-2126
ou	-2127
sk	-2128
ara	-2129
cit	-2130
ina	-2131
ord	-2132
ual	-2133
iers	-2134
▁fig	-2135
▁key	-2136
▁rug	-2137
cular	-2138
fting	-2139
table	-2140
▁knee	-2141
▁lone	-2142
▁nose	-2143
▁rece	-2144
▁spot	-2145
▁infla	-2146
▁refle	-2147
▁saxop	-2148
▁closed	-2149
▁dances	-2150
▁infant	-2151
▁picnic	-2152
▁sewing	-2153
▁members	-2154
▁opening	-2155
▁rolling	-2156
▁stuffed	-2157
▁surface	-2158
▁attempts	-2159
▁performer	-2160
▁profession	-2161
▁wheelchair	-2162
tom	-2163
udy	-2164
yle	-2165
self	-2166
▁min	-2167
dress	-2168
these	-2169
ustic	-2170
▁farm	-2171
▁goes	-2172
▁hoop	-2173
▁lays	-2174
▁ring	-2175
▁seat	-2176
▁bever	-2177
▁lunch	-2178
▁slope	-2179
▁third	-2180
▁trans	-2181
leaders	-2182
▁blouse	-2183
▁bottom	-2184
▁button	-2185
▁center	-2186
▁circle	-2187
▁pushes	-2188
estrians	-2189
▁balcony	-2190
▁himself	-2191
▁oriental	-2192
▁softball	-2193
uc	-2194
med	-2195
rol	-2196
▁ke	-2197
▁tw	-2198
ashi	-2199
ital	-2200
road	-2201
▁dry	-2202
▁mop	-2203
▁pan	-2204
▁pip	-2205
▁put	-2206
▁rub	-2207
▁see	-2208
tered	-2209
▁bent	-2210
▁camp	-2211
▁cond	-2212
▁jugg	-2213
▁most	-2214
▁puts	-2215
▁skis	-2216
▁turn	-2217
▁boxes	-2218
▁pulls	-2219
▁sandy	-2220
▁steep	-2221
artment	-2222
▁chases	-2223
▁design	-2224
▁device	-2225
▁formal	-2226
▁indoor	-2227
▁speaks	-2228
▁sprink	-2229
▁travel	-2230
▁athlete	-2231
▁gymnast	-2232
▁staircase	-2233
ast	-2234
itt	-2235
ses	-2236
dium	-2237
icks	-2238
irts	-2239
lane	-2240
▁gaz	-2241
place	-2242
scape	-2243
▁gate	-2244
▁kaya	-2245
▁loun	-2246
▁port	-2247
▁robe	-2248
▁tele	-2249
atting	-2250
▁fresh	-2251
▁paved	-2252
▁stare	-2253
▁swims	-2254
▁driver	-2255
▁drives	-2256
▁enjoys	-2257
▁fallen	-2258
▁golden	-2259
▁podium	-2260
▁grocery	-2261
▁shaking	-2262
▁approach	-2263
▁covering	-2264
▁festival	-2265
▁keyboard	-2266
▁overalls	-2267
ato	-2268
gon	-2269
guy	-2270
ics	-2271
▁di	-2272
▁tu	-2273
apan	-2274
nder	-2275
ried	-2276
▁den	-2277
▁don	-2278
▁mer	-2279
apers	-2280
older	-2281
▁cook	-2282
▁curb	-2283
▁fenc	-2284
▁jean	-2285
▁nice	-2286
▁pian	-2287
▁slee	-2288
▁tong	-2289
vement	-2290
▁birds	-2291
▁chalk	-2292
▁clear	-2293
▁grind	-2294
▁heavy	-2295
▁khaki	-2296
▁kicks	-2297
▁mound	-2298
▁porch	-2299
▁robes	-2300
▁sheep	-2301
▁stool	-2302
covered	-2303
▁appear	-2304
▁dancer	-2305
▁figure	-2306
▁hikers	-2307
▁puddle	-2308
▁fingers	-2309
▁laundry	-2310
▁pitcher	-2311
▁pouring	-2312
▁shaving	-2313
▁windows	-2314
▁marching	-2315
▁customers	-2316
▁gentlemen	-2317
▁rollerbla	-2318
▁teenagers	-2319
▁waterfall	-2320
▁bicyclists	-2321
wi	-2322
cus	-2323
ersk	-2324
tail	-2325
time	-2326
▁bou	-2327
▁cho	-2328
▁hal	-2329
▁lay	-2330
▁sum	-2331
illow	-2332
▁carp	-2333
▁doll	-2334
▁dust	-2335
▁lead	-2336
▁lies	-2337
▁lots	-2338
▁palm	-2339
▁polo	-2340
▁sale	-2341
ashion	-2342
icycle	-2343
uggage	-2344
▁arena	-2345
▁barbe	-2346
▁groom	-2347
▁hangs	-2348
▁japan	-2349
▁kayak	-2350
▁ledge	-2351
▁local	-2352
▁piano	-2353
▁poles	-2354
▁blocks	-2355
▁cloudy	-2356
▁colors	-2357
▁evening	-2358
▁foreign	-2359
▁reaches	-2360
▁wrapped	-2361
▁airplane	-2362
▁attached	-2363
▁backyard	-2364
▁checking	-2365
▁opposite	-2366
▁paddling	-2367
▁shooting	-2368
▁teenager	-2369
▁saxophone	-2370
▁shoveling	-2371
▁protective	-2372
ef	-2373
ka	-2374
ma	-2375
no	-2376
jam	-2377
ouf	-2378
vis	-2379
anta	-2380
ible	-2381
ides	-2382
itor	-2383
sing	-2384
▁adj	-2385
▁far	-2386
▁jew	-2387
▁sco	-2388
▁sup	-2389
▁vac	-2390
ident	-2391
▁amus	-2392
▁bran	-2393
▁cons	-2394
▁fabr	-2395
▁feed	-2396
▁pair	-2397
▁poss	-2398
▁raft	-2399
▁ship	-2400
▁type	-2401
▁york	-2402
inning	-2403
shirts	-2404
▁cones	-2405
▁denim	-2406
▁oppon	-2407
▁pajam	-2408
▁sword	-2409
ouflage	-2410
▁bandan	-2411
▁fenced	-2412
▁goalie	-2413
▁pillow	-2414
▁poster	-2415
▁tongue	-2416
▁luggage	-2417
▁jumpsuit	-2418
▁pavement	-2419
▁position	-2420
▁balancing	-2421
▁camouflage	-2422
▁inflatable	-2423
cy	-2424
wa	-2425
ang	-2426
ars	-2427
ced	-2428
clo	-2429
del	-2430
vol	-2431
▁ei	-2432
aped	-2433
fire	-2434
land	-2435
oney	-2436
ured	-2437
▁map	-2438
▁orn	-2439
▁pow	-2440
▁rou	-2441
▁sec	-2442
▁war	-2443
ights	-2444
▁beam	-2445
▁club	-2446
▁eats	-2447
▁meet	-2448
▁plan	-2449
▁refe	-2450
ertain	-2451
▁escal	-2452
▁excit	-2453
▁frame	-2454
▁image	-2455
▁tools	-2456
▁walls	-2457
▁buying	-2458
▁fabric	-2459
▁flight	-2460
▁headsc	-2461
▁laughs	-2462
▁native	-2463
▁shadow	-2464
▁skirts	-2465
▁married	-2466
▁tractor	-2467
▁floating	-2468
▁juggling	-2469
▁railroad	-2470
▁courtyard	-2471
▁firefight	-2472
▁motorcycles	-2473
▁professional	-2474
aw	-2475
ls	-2476
pa	-2477
cut	-2478
day	-2479
ips	-2480
pan	-2481
per	-2482
▁ju	-2483
aint	-2484
boys	-2485
cles	-2486
iple	-2487
stle	-2488
uses	-2489
▁aco	-2490
▁pen	-2491
▁pig	-2492
▁sim	-2493
▁spo	-2494
▁tar	-2495
▁cool	-2496
▁pipe	-2497
▁toss	-2498
ection	-2499
ipping	-2500
olding	-2501
▁boats	-2502
▁bread	-2503
▁chest	-2504
▁goods	-2505
▁moves	-2506
▁rugby	-2507
▁shown	-2508
▁socks	-2509
▁towel	-2510
▁carpet	-2511
▁either	-2512
▁floral	-2513
▁hurdle	-2514
▁living	-2515
▁riders	-2516
▁bucking	-2517
▁garbage	-2518
▁happily	-2519
▁jerseys	-2520
▁pajamas	-2521
▁soldier	-2522
▁acoustic	-2523
▁bandanna	-2524
▁carriage	-2525
▁cheering	-2526
▁rollersk	-2527
▁soldiers	-2528
▁touching	-2529
▁backwards	-2530
▁entertain	-2531
▁suspended	-2532
▁marketplace	-2533
▁scaffolding	-2534
ds	-2535
fa	-2536
ees	-2537
erc	-2538
lid	-2539
sta	-2540
uro	-2541
▁bm	-2542
lymp	-2543
skin	-2544
▁egg	-2545
▁fly	-2546
▁hay	-2547
▁mow	-2548
▁rac	-2549
▁six	-2550
▁str	-2551
chest	-2552
seven	-2553
▁boun	-2554
▁care	-2555
▁chop	-2556
▁emer	-2557
▁fans	-2558
▁fast	-2559
▁ribb	-2560
▁stor	-2561
▁supp	-2562
▁tops	-2563
ention	-2564
▁broom	-2565
▁float	-2566
▁invol	-2567
▁model	-2568
▁peace	-2569
▁plant	-2570
▁plaza	-2571
▁shade	-2572
▁snack	-2573
▁sport	-2574
▁stove	-2575
▁teamm	-2576
▁thumb	-2577
skinned	-2578
sleeved	-2579
ucasian	-2580
▁barrel	-2581
▁caught	-2582
▁dining	-2583
▁kneels	-2584
▁paints	-2585
▁parach	-2586
▁raised	-2587
▁summer	-2588
▁airport	-2589
▁animals	-2590
▁climber	-2591
▁harness	-2592
▁serving	-2593
▁welding	-2594
▁magazine	-2595
▁backpacks	-2596
▁escalator	-2597
▁landscape	-2598
▁underwater	-2599
▁advertisement	-2600
ws	-2601
blo	-2602
bow	-2603
eer	-2604
lit	-2605
lor	-2606
sho	-2607
▁el	-2608
bike	-2609
cess	-2610
cted	-2611
erby	-2612
hood	-2613
male	-2614
mers	-2615
tery	-2616
▁loc	-2617
▁use	-2618
ently	-2619
front	-2620
ister	-2621
umpet	-2622
white	-2623
▁cere	-2624
▁free	-2625
▁keep	-2626
▁liqu	-2627
▁neon	-2628
▁pige	-2629
▁pony	-2630
▁tube	-2631
ations	-2632
stacle	-2633
▁candy	-2634
▁dread	-2635
▁drive	-2636
▁money	-2637
▁olymp	-2638
▁plane	-2639
▁polka	-2640
▁santa	-2641
▁seems	-2642
▁action	-2643
▁finger	-2644
▁german	-2645
▁gravel	-2646
▁hooded	-2647
▁neckla	-2648
▁sandwi	-2649
▁thrown	-2650
▁bending	-2651
▁fashion	-2652
▁referee	-2653
▁runners	-2654
▁student	-2655
▁trumpet	-2656
▁athletic	-2657
▁brushing	-2658
▁grilling	-2659
▁japanese	-2660
▁obstacle	-2661
▁amusement	-2662
▁examining	-2663
▁operating	-2664
▁participating	-2665
cue	-2666
hib	-2667
ift	-2668
ilt	-2669
uba	-2670
amer	-2671
bile	-2672
like	-2673
▁adm	-2674
▁amp	-2675
▁aut	-2676
▁beg	-2677
▁dem	-2678
▁dro	-2679
▁fen	-2680
▁fir	-2681
▁ges	-2682
▁pit	-2683
▁tex	-2684
▁try	-2685
crowd	-2686
hound	-2687
ungle	-2688
▁ange	-2689
▁cone	-2690
▁dump	-2691
▁half	-2692
▁knit	-2693
▁leaf	-2694
▁rout	-2695
▁sets	-2696
▁thin	-2697
▁trip	-2698
▁warm	-2699
▁wide	-2700
▁wire	-2701
▁activ	-2702
▁coach	-2703
▁exerc	-2704
▁heart	-2705
▁heels	-2706
▁jewel	-2707
▁muddy	-2708
▁neigh	-2709
▁outst	-2710
▁print	-2711
▁ropes	-2712
▁wagon	-2713
▁youth	-2714
chestra	-2715
▁jungle	-2716
▁sleeve	-2717
▁studio	-2718
▁things	-2719
▁attempt	-2720
▁benches	-2721
▁compete	-2722
▁gesture	-2723
▁haircut	-2724
▁hallway	-2725
▁hitting	-2726
▁mustach	-2727
▁protest	-2728
▁redhead	-2729
▁sharing	-2730
▁teacher	-2731
▁bathroom	-2732
▁crouches	-2733
▁cyclists	-2734
▁opponent	-2735
▁practice	-2736
▁sticking	-2737
▁vehicles	-2738
▁caucasian	-2739
▁checkered	-2740
▁decorated	-2741
▁headscarf	-2742
▁orchestra	-2743
▁individual	-2744
▁pedestrians	-2745
▁photographs	-2746
▁presentation	-2747
cc	-2748
je	-2749
ky	-2750
gan	-2751
ggy	-2752
iny	-2753
mon	-2754
umn	-2755
unk	-2756
zer	-2757
atic	-2758
down	-2759
eech	-2760
etra	-2761
ibly	-2762
uffy	-2763
▁atv	-2764
▁bir	-2765
▁ble	-2766
▁bmx	-2767
▁cro	-2768
▁dep	-2769
▁emb	-2770
▁lan	-2771
▁sal	-2772
▁you	-2773
brown	-2774
ility	-2775
inery	-2776
ption	-2777
rench	-2778
thnic	-2779
▁also	-2780
▁appl	-2781
▁bill	-2782
▁ears	-2783
▁entr	-2784
▁euro	-2785
▁feat	-2786
▁moto	-2787
▁muzz	-2788
▁only	-2789
▁sack	-2790
▁sink	-2791
etrack	-2792
iewing	-2793
isting	-2794
ycling	-2795
yhound	-2796
▁adjus	-2797
▁crash	-2798
▁eleph	-2799
▁focus	-2800
▁grand	-2801
▁patio	-2802
▁racer	-2803
▁rests	-2804
▁shoot	-2805
▁start	-2806
▁bikers	-2807
▁cleans	-2808
▁comple	-2809
▁easter	-2810
▁fruits	-2811
▁garage	-2812
▁patter	-2813
▁rowing	-2814
▁slides	-2815
▁speech	-2816
▁stones	-2817
▁ceiling	-2818
▁control	-2819
▁drummer	-2820
▁excited	-2821
▁feeding	-2822
▁guitars	-2823
▁barbecue	-2824
▁mustache	-2825
▁sandwich	-2826
▁sporting	-2827
▁machinery	-2828
▁motocross	-2829
▁policeman	-2830
▁racetrack	-2831
▁passengers	-2832
▁skateboards	-2833
▁snowboarding	-2834
ab	-2835
ti	-2836
des	-2837
eum	-2838
ica	-2839
loy	-2840
tel	-2841
ards	-2842
boat	-2843
hawk	-2844
ites	-2845
pher	-2846
rier	-2847
▁aqu	-2848
▁del	-2849
▁dim	-2850
▁fea	-2851
▁hum	-2852
▁tag	-2853
▁tho	-2854
jects	-2855
truck	-2856
▁hers	-2857
▁hosp	-2858
▁lane	-2859
▁navy	-2860
▁puck	-2861
▁remo	-2862
▁sail	-2863
▁scre	-2864
▁surg	-2865
esting	-2866
▁ahead	-2867
▁apple	-2868
▁birth	-2869
▁cloud	-2870
▁drill	-2871
▁exhib	-2872
▁fancy	-2873
▁great	-2874
▁rough	-2875
▁scuba	-2876
▁sells	-2877
▁terra	-2878
borhood	-2879
▁bushes	-2880
▁compan	-2881
▁inters	-2882
▁museum	-2883
▁narrow	-2884
▁baskets	-2885
▁herself	-2886
▁leaving	-2887
▁observe	-2888
▁petting	-2889
▁routine	-2890
▁shepher	-2891
▁stopped	-2892
▁beverage	-2893
▁electron	-2894
▁entrance	-2895
▁headband	-2896
▁hillside	-2897
▁hospital	-2898
▁possibly	-2899
▁boardwalk	-2900
▁horseback	-2901
▁discussion	-2902
▁intersection	-2903
▁neighborhood	-2904
af	-2905
go	-2906
boo	-2907
dan	-2908
hou	-2909
ked	-2910
nas	-2911
▁ti	-2912
aked	-2913
gged	-2914
lady	-2915
lops	-2916
roon	-2917
▁buy	-2918
▁pee	-2919
▁piz	-2920
▁tax	-2921
▁too	-2922
▁vil	-2923
aters	-2924
ative	-2925
blond	-2926
ially	-2927
large	-2928
locks	-2929
rence	-2930
▁arch	-2931
▁army	-2932
▁brow	-2933
▁chee	-2934
▁clay	-2935
▁dune	-2936
▁hugs	-2937
▁lamp	-2938
▁live	-2939
▁load	-2940
▁mall	-2941
▁song	-2942
▁tile	-2943
▁wild	-2944
ightly	-2945
vision	-2946
▁chase	-2947
▁condu	-2948
▁doors	-2949
▁helps	-2950
▁puppy	-2951
▁seats	-2952
▁smoke	-2953
▁super	-2954
retched	-2955
▁chains	-2956
▁cobble	-2957
▁dishes	-2958
▁maroon	-2959
▁mixing	-2960
▁mostly	-2961
▁ornate	-2962
▁rubber	-2963
▁silhou	-2964
▁skates	-2965
▁spread	-2966
▁transp	-2967
▁bottles	-2968
▁buckets	-2969
▁cricket	-2970
▁fencing	-2971
▁folding	-2972
▁indoors	-2973
▁patient	-2974
▁birthday	-2975
▁complete	-2976
▁shepherd	-2977
▁tattooed	-2978
▁cardboard	-2979
▁container	-2980
▁greyhound	-2981
▁handstand	-2982
▁squatting	-2983
▁celebrating	-2984
▁microphones	-2985
▁motorcyclist	-2986
▁outstretched	-2987
wh	-2988
ets	-2989
gre	-2990
iet	-2991
ior	-2992
nit	-2993
pip	-2994
pro	-2995
uum	-2996
▁du	-2997
▁ru	-2998
▁wo	-2999
ames	-3000
ency	-3001
ilar	-3002
quet	-3003
umer	-3004
view	-3005
▁arc	-3006
▁bla	-3007
▁cab	-3008
▁gas	-3009
▁odd	-3010
▁own	-3011
▁pop	-3012
▁pri	-3013
▁rec	-3014
▁ste	-3015
ature	-3016
brary	-3017
gency	-3018
house	-3019
onstr	-3020
pical	-3021
▁amid	-3022
▁bars	-3023
▁bass	-3024
▁bean	-3025
▁belt	-3026
▁calf	-3027
▁dead	-3028
▁defe	-3029
▁item	-3030
▁kite	-3031
▁pump	-3032
▁rink	-3033
▁spar	-3034
▁wife	-3035
niture	-3036
▁blows	-3037
▁bowls	-3038
▁choir	-3039
▁confe	-3040
▁derby	-3041
▁embra	-3042
▁first	-3043
▁funny	-3044
▁lines	-3045
▁merch	-3046
▁newly	-3047
▁paras	-3048
▁patch	-3049
▁punch	-3050
▁rural	-3051
▁space	-3052
▁bagpip	-3053
▁baller	-3054
▁boxing	-3055
▁crafts	-3056
▁doctor	-3057
▁jockey	-3058
▁mohawk	-3059
▁moment	-3060
▁pieces	-3061
▁record	-3062
▁ribbon	-3063
▁smokes	-3064
▁stares	-3065
▁vacuum	-3066
▁wheels	-3067
▁balance	-3068
▁carving	-3069
▁eastern	-3070
▁leading	-3071
▁library	-3072
▁medical	-3073
▁scenery	-3074
▁stripes	-3075
▁swimmer	-3076
▁tattoos	-3077
▁turning	-3078
▁coloring	-3079
▁flipping	-3080
▁grinding	-3081
▁spinning	-3082
▁apartment	-3083
▁crouching	-3084
▁firetruck	-3085
▁guitarist	-3086
▁uniformed	-3087
▁conference	-3088
▁dreadlocks	-3089
▁inspecting	-3090
▁reflective	-3091
▁sleeveless	-3092
▁storefront	-3093
▁stretching	-3094
▁cheerleaders	-3095
da	-3096
▁ic	-3097
born	-3098
dogs	-3099
ians	-3100
ilts	-3101
long	-3102
ndon	-3103
stor	-3104
stud	-3105
teen	-3106
▁cop	-3107
▁dec	-3108
▁got	-3109
▁let	-3110
ctory	-3111
flops	-3112
girls	-3113
rents	-3114
tails	-3115
▁bund	-3116
▁calm	-3117
▁comm	-3118
▁corn	-3119
▁crew	-3120
▁cuts	-3121
▁fold	-3122
▁name	-3123
▁seem	-3124
▁sofa	-3125
▁stom	-3126
▁tick	-3127
▁tied	-3128
acting	-3129
nasium	-3130
▁backs	-3131
▁chick	-3132
▁crane	-3133
▁dimly	-3134
▁explo	-3135
▁hotel	-3136
▁mater	-3137
▁moder	-3138
▁moped	-3139
▁organ	-3140
▁pizza	-3141
▁rainy	-3142
▁retur	-3143
▁banner	-3144
▁batter	-3145
▁broken	-3146
▁castle	-3147
▁comfor	-3148
▁engine	-3149
▁ethnic	-3150
▁europe	-3151
▁fluffy	-3152
▁london	-3153
▁member	-3154
▁raises	-3155
▁balding	-3156
▁candles	-3157
▁factory	-3158
▁jewelry	-3159
▁listens	-3160
▁objects	-3161
▁pigeons	-3162
▁similar	-3163
▁theater	-3164
▁viewing	-3165
▁balances	-3166
▁demonstr	-3167
▁intently	-3168
▁material	-3169
▁spraying	-3170
▁stairway	-3171
▁computers	-3172
▁following	-3173
▁furniture	-3174
▁gymnasium	-3175
▁gymnastic	-3176
▁motorbike	-3177
▁nighttime	-3178
▁partially	-3179
▁discussing	-3180
▁approaching	-3181
▁surrounding	-3182
ms	-3183
bal	-3184
int	-3185
lot	-3186
mid	-3187
min	-3188
pol	-3189
rob	-3190
run	-3191
ues	-3192
uzz	-3193
dles	-3194
hand	-3195
lish	-3196
pers	-3197
town	-3198
ways	-3199
▁ang	-3200
▁bun	-3201
▁fet	-3202
▁may	-3203
▁reg	-3204
▁sad	-3205
▁sor	-3206
▁sty	-3207
▁tea	-3208
aster	-3209
borne	-3210
ctors	-3211
iring	-3212
rucks	-3213
stone	-3214
urity	-3215
while	-3216
▁bino	-3217
▁clut	-3218
▁duck	-3219
▁hang	-3220
▁heav	-3221
▁hits	-3222
▁horn	-3223
▁lear	-3224
▁more	-3225
▁nets	-3226
▁note	-3227
▁pine	-3228
▁pret	-3229
▁taxi	-3230
▁tech	-3231
▁camel	-3232
▁carry	-3233
▁exper	-3234
▁hoops	-3235
▁naked	-3236
▁share	-3237
▁spoon	-3238
▁style	-3239
▁turns	-3240
boarder	-3241
colored	-3242
umerous	-3243
▁barber	-3244
▁branch	-3245
▁called	-3246
▁employ	-3247
▁groups	-3248
▁liquid	-3249
▁mobile	-3250
▁modern	-3251
▁paddle	-3252
▁papers	-3253
▁photos	-3254
▁plates	-3255
▁scream	-3256
▁shades	-3257
▁shakes	-3258
▁shaped	-3259
▁shaved	-3260
▁target	-3261
▁amongst	-3262
▁beneath	-3263
▁catcher	-3264
▁college	-3265
▁crosses	-3266
▁engaged	-3267
▁fireman	-3268
▁follows	-3269
▁forward	-3270
▁rainbow	-3271
▁raising	-3272
▁shovels	-3273
▁smaller	-3274
▁stomach	-3275
▁terrain	-3276
▁trailer	-3277
▁village	-3278
▁wrestle	-3279
▁downtown	-3280
▁elephant	-3281
▁flowered	-3282
▁lounging	-3283
▁necklace	-3284
▁official	-3285
▁security	-3286
▁starting	-3287
▁teammate	-3288
▁training	-3289
▁unicycle	-3290
▁billboard	-3291
▁binocular	-3292
▁observing	-3293
▁directions	-3294
▁electronic	-3295
▁television	-3296
▁advertising	-3297
▁participate	-3298
he	-3299
box	-3300
eds	-3301
ife	-3302
lst	-3303
omb	-3304
sur	-3305
urs	-3306
usk	-3307
▁ge	-3308
▁su	-3309
coat	-3310
greg	-3311
ices	-3312
ions	-3313
isle	-3314
late	-3315
oned	-3316
rail	-3317
sely	-3318
thus	-3319
ures	-3320
vely	-3321
wood	-3322
zing	-3323
▁bul	-3324
▁cel	-3325
▁fac	-3326
▁hug	-3327
▁jet	-3328
▁job	-3329
▁nav	-3330
▁occ	-3331
▁rod	-3332
▁sem	-3333
▁sid	-3334
▁tor	-3335
▁was	-3336
aract	-3337
arves	-3338
ately	-3339
cheer	-3340
itors	-3341
ively	-3342
izing	-3343
▁cape	-3344
▁caps	-3345
▁cray	-3346
▁cree	-3347
▁desc	-3348
▁fake	-3349
▁gift	-3350
▁gown	-3351
▁guns	-3352
▁inte	-3353
▁iron	-3354
▁mini	-3355
▁mitt	-3356
▁nail	-3357
▁poor	-3358
▁scra	-3359
▁snea	-3360
▁upon	-3361
barrow	-3362
sleeve	-3363
▁aisle	-3364
▁angel	-3365
▁chefs	-3366
▁dough	-3367
▁glove	-3368
▁leads	-3369
▁press	-3370
▁quick	-3371
▁races	-3372
▁shops	-3373
▁silly	-3374
▁skill	-3375
▁steel	-3376
▁tents	-3377
▁tight	-3378
▁tower	-3379
▁trunk	-3380
▁biking	-3381
▁bleach	-3382
▁casual	-3383
▁donkey	-3384
▁houses	-3385
▁lounge	-3386
▁nature	-3387
▁wading	-3388
▁whilst	-3389
▁bystand	-3390
▁cameras	-3391
▁charact	-3392
▁closeup	-3393
▁congreg	-3394
▁express	-3395
▁lifting	-3396
▁loading	-3397
▁newborn	-3398
▁peering	-3399
▁pottery	-3400
▁repairs	-3401
▁snowsho	-3402
▁weaving	-3403
▁admiring	-3404
▁airborne	-3405
▁converse	-3406
▁machines	-3407
▁slightly	-3408
▁snowsuit	-3409
▁splashes	-3410
▁straight	-3411
▁teaching	-3412
▁tourists	-3413
▁ballerina	-3414
▁fisherman	-3415
▁passenger	-3416
▁receiving	-3417
▁redheaded	-3418
▁sprinkler	-3419
▁binoculars	-3420
▁protesting	-3421
cheerleaders	-3422
▁cobblestone	-3423
▁interacting	-3424
▁wheelbarrow	-3425
▁firefighters	-3426
▁photographed	-3427
▁rollerblades	-3428
xy	-3429
ze	-3430
bby	-3431
bic	-3432
can	-3433
ded	-3434
dro	-3435
ham	-3436
mat	-3437
mus	-3438
nam	-3439
vie	-3440
vil	-3441
zen	-3442
▁av	-3443
▁pi	-3444
▁sy	-3445
▁tv	-3446
▁vo	-3447
bris	-3448
erry	-3449
eter	-3450
gund	-3451
happ	-3452
ific	-3453
izon	-3454
mony	-3455
mult	-3456
▁arr	-3457
▁bin	-3458
▁coo	-3459
▁dad	-3460
▁dot	-3461
▁ext	-3462
▁spi	-3463
▁tom	-3464
▁ump	-3465
▁vic	-3466
gundy	-3467
iment	-3468
ivers	-3469
style	-3470
ually	-3471
ument	-3472
▁bank	-3473
▁come	-3474
▁craw	-3475
▁cups	-3476
▁dusk	-3477
▁eggs	-3478
▁leot	-3479
▁loom	-3480
▁oven	-3481
▁scru	-3482
▁skin	-3483
▁span	-3484
crosse	-3485
friend	-3486
icking	-3487
soccer	-3488
weight	-3489
▁bound	-3490
▁craft	-3491
▁flips	-3492
▁flute	-3493
▁messy	-3494
▁navig	-3495
▁order	-3496
▁power	-3497
▁ricks	-3498
▁sniff	-3499
▁tires	-3500
▁wings	-3501
▁world	-3502
▁autumn	-3503
▁butter	-3504
▁checks	-3505
▁commun	-3506
▁debris	-3507
▁enthus	-3508
▁handle	-3509
▁instru	-3510
▁portra	-3511
▁pretty	-3512
▁social	-3513
▁thumbs	-3514
american	-3515
multiple	-3516
students	-3517
▁barrier	-3518
▁coaster	-3519
▁contest	-3520
▁landing	-3521
▁laptops	-3522
▁lecture	-3523
▁meeting	-3524
▁praying	-3525
▁sailing	-3526
▁shining	-3527
▁spotted	-3528
▁tourist	-3529
▁breakdan	-3530
▁browsing	-3531
▁burgundy	-3532
▁ceremony	-3533
▁chainsaw	-3534
▁customer	-3535
▁entering	-3536
▁examines	-3537
▁gestures	-3538
▁lacrosse	-3539
▁observes	-3540
▁overhead	-3541
▁rickshaw	-3542
▁sneakers	-3543
▁studying	-3544
▁swimmers	-3545
▁tropical	-3546
▁waterway	-3547
▁attention	-3548
▁bleachers	-3549
▁groceries	-3550
▁telephone	-3551
▁transport	-3552
▁consisting	-3553
▁waterfront	-3554
bi	-3555
cd	-3556
eu	-3557
ex	-3558
gy	-3559
of	-3560
▁u	-3561
aps	-3562
arn	-3563
bag	-3564
cep	-3565
cra	-3566
fem	-3567
hop	-3568
kis	-3569
quo	-3570
rys	-3571
tes	-3572
tub	-3573
ude	-3574
ula	-3575
val	-3576
▁ax	-3577
▁if	-3578
▁my	-3579
ared	-3580
book	-3581
cdon	-3582
cked	-3583
hill	-3584
leas	-3585
lies	-3586
made	-3587
mark	-3588
mboo	-3589
melo	-3590
ored	-3591
reet	-3592
rent	-3593
ults	-3594
umin	-3595
▁adv	-3596
▁aim	-3597
▁awa	-3598
▁dom	-3599
▁fit	-3600
▁hus	-3601
▁inj	-3602
▁joh	-3603
▁jud	-3604
▁lar	-3605
▁mor	-3606
▁ord	-3607
▁rel	-3608
▁sam	-3609
▁sen	-3610
▁sla	-3611
▁tem	-3612
▁tug	-3613
arter	-3614
bbing	-3615
brush	-3616
happy	-3617
imate	-3618
ished	-3619
ities	-3620
itten	-3621
oodle	-3622
wheel	-3623
▁been	-3624
▁bite	-3625
▁blur	-3626
▁call	-3627
▁clad	-3628
▁draw	-3629
▁give	-3630
▁masc	-3631
▁mass	-3632
▁recl	-3633
▁seco	-3634
▁sele	-3635
▁semi	-3636
▁tape	-3637
▁teal	-3638
▁trol	-3639
▁wrap	-3640
▁yoga	-3641
andise	-3642
cdonal	-3643
compan	-3644
enting	-3645
ooters	-3646
ryside	-3647
street	-3648
▁acrob	-3649
▁attra	-3650
▁banan	-3651
▁brief	-3652
▁carts	-3653
▁cello	-3654
▁chess	-3655
▁colla	-3656
▁comes	-3657
▁crown	-3658
▁desce	-3659
▁games	-3660
▁juice	-3661
▁knees	-3662
▁knife	-3663
▁movie	-3664
▁purch	-3665
▁score	-3666
▁sides	-3667
▁sized	-3668
▁stops	-3669
▁story	-3670
▁sunba	-3671
▁touch	-3672
▁tread	-3673
▁wares	-3674
▁wires	-3675
attered	-3676
▁bamboo	-3677
▁beanie	-3678
▁bricks	-3679
▁farmer	-3680
▁kayaks	-3681
▁listen	-3682
▁motion	-3683
▁places	-3684
▁potato	-3685
▁sweeps	-3686
▁tackle	-3687
▁umpire	-3688
▁backdro	-3689
▁boulder	-3690
▁chicken	-3691
▁exhibit	-3692
▁filling	-3693
▁firemen	-3694
▁handing	-3695
▁heading	-3696
▁horizon	-3697
▁mcdonal	-3698
▁paddles	-3699
▁pillows	-3700
▁process	-3701
▁pumpkin	-3702
▁science	-3703
▁shadows	-3704
▁spanish	-3705
▁strange	-3706
▁tossing	-3707
▁touches	-3708
▁vendors	-3709
▁wheelie	-3710
▁alleyway	-3711
▁applying	-3712
▁bagpipes	-3713
▁blankets	-3714
▁clapping	-3715
▁exercise	-3716
▁forehead	-3717
▁inspects	-3718
▁monument	-3719
▁olympics	-3720
▁pigtails	-3721
▁scaffold	-3722
▁scooters	-3723
▁suitcase	-3724
▁visiting	-3725
▁wrestler	-3726
▁attending	-3727
▁beverages	-3728
▁emergency	-3729
▁headdress	-3730
▁paperwork	-3731
▁screaming	-3732
▁watermelo	-3733
▁bystanders	-3734
▁gymnastics	-3735
▁newspapers	-3736
▁overweight	-3737
▁performers	-3738
▁countryside	-3739
▁merchandise	-3740
▁rollerblading	-3741
gn	-3742
sw	-3743
act	-3744
ama	-3745
eas	-3746
fle	-3747
lds	-3748
mem	-3749
▁hy	-3750
▁ja	-3751
bank	-3752
bear	-3753
ened	-3754
mmed	-3755
most	-3756
pids	-3757
surf	-3758
tour	-3759
▁acc	-3760
▁fed	-3761
▁fle	-3762
▁hut	-3763
▁ill	-3764
▁joy	-3765
▁kno	-3766
▁mex	-3767
▁mug	-3768
▁mur	-3769
▁nur	-3770
▁pir	-3771
▁rad	-3772
▁saw	-3773
▁sep	-3774
▁syn	-3775
▁tas	-3776
▁tim	-3777
▁tux	-3778
▁val	-3779
anges	-3780
eeled	-3781
ersby	-3782
ising	-3783
ments	-3784
oping	-3785
romat	-3786
uting	-3787
where	-3788
▁ador	-3789
▁bead	-3790
▁bron	-3791
▁cans	-3792
▁case	-3793
▁chin	-3794
▁elev	-3795
▁flat	-3796
▁glid	-3797
▁hind	-3798
▁lens	-3799
▁link	-3800
▁logs	-3801
▁meas	-3802
▁rice	-3803
▁rust	-3804
▁seas	-3805
▁soap	-3806
▁soda	-3807
▁stir	-3808
▁tiny	-3809
▁tray	-3810
▁unus	-3811
▁wake	-3812
▁weap	-3813
▁will	-3814
▁yarn	-3815
female	-3816
mother	-3817
quoise	-3818
▁assem	-3819
▁banjo	-3820
▁blind	-3821
▁butch	-3822
▁cheek	-3823
▁china	-3824
▁creek	-3825
▁diver	-3826
▁dives	-3827
▁dusty	-3828
▁eight	-3829
▁falls	-3830
▁lifts	-3831
▁maint	-3832
▁mower	-3833
▁opens	-3834
▁picks	-3835
▁rally	-3836
▁range	-3837
▁salon	-3838
▁speak	-3839
▁still	-3840
▁treat	-3841
african	-3842
bearded	-3843
itorium	-3844
resting	-3845
runners	-3846
▁arcade	-3847
▁assist	-3848
▁attend	-3849
▁ballet	-3850
▁belong	-3851
▁biting	-3852
▁cheese	-3853
▁contra	-3854
▁covers	-3855
▁floats	-3856
▁folded	-3857
▁headed	-3858
▁inform	-3859
▁khakis	-3860
▁lanter	-3861
▁larger	-3862
▁lifted	-3863
▁medium	-3864
▁placed	-3865
▁pocket	-3866
▁rapids	-3867
▁retrie	-3868
▁scouts	-3869
▁second	-3870
▁serves	-3871
▁skiers	-3872
▁tights	-3873
▁tomato	-3874
▁burning	-3875
▁camping	-3876
▁closely	-3877
▁company	-3878
▁constru	-3879
▁cowboys	-3880
▁crossed	-3881
▁descent	-3882
▁focused	-3883
▁gathers	-3884
▁highway	-3885
▁lighted	-3886
▁placing	-3887
▁puppies	-3888
▁quarter	-3889
▁skaters	-3890
▁surgery	-3891
▁trolley	-3892
▁visible	-3893
▁watched	-3894
▁weather	-3895
▁accompan	-3896
▁athletes	-3897
▁backdrop	-3898
▁chatting	-3899
▁handrail	-3900
▁homeless	-3901
▁involved	-3902
▁kayaking	-3903
▁learning	-3904
▁location	-3905
▁multiple	-3906
▁planting	-3907
▁ponytail	-3908
▁sunlight	-3909
▁supplies	-3910
▁tackling	-3911
▁tricycle	-3912
▁adjusting	-3913
▁carefully	-3914
▁formation	-3915
▁magazines	-3916
▁motorized	-3917
▁parachute	-3918
▁patterned	-3919
▁playfully	-3920
▁practices	-3921
▁repairing	-3922
▁shoreline	-3923
▁snowshoes	-3924
▁swimsuits	-3925
▁traveling	-3926
▁turquoise	-3927
▁underwear	-3928
▁auditorium	-3929
▁chalkboard	-3930
▁department	-3931
▁laundromat	-3932
▁reflection	-3933
▁suspenders	-3934
▁celebration	-3935
▁firefighter	-3936
▁motorcyclists	-3937
▁rollerskating	-3938
ai	-3939
bl	-3940
po	-3941
vi	-3942
wl	-3943
yo	-3944
bed	-3945
ipp	-3946
ize	-3947
lad	-3948
mes	-3949
rid	-3950
vas	-3951
▁dj	-3952
▁mi	-3953
▁ox	-3954
▁ut	-3955
chan	-3956
cker	-3957
coup	-3958
enue	-3959
food	-3960
ftop	-3961
gull	-3962
icop	-3963
play	-3964
roke	-3965
seup	-3966
stri	-3967
tend	-3968
▁atm	-3969
▁est	-3970
▁fat	-3971
▁hyd	-3972
▁lip	-3973
▁tut	-3974
aling	-3975
encil	-3976
green	-3977
illed	-3978
inger	-3979
lined	-3980
music	-3981
right	-3982
spect	-3983
▁arri	-3984
▁asia	-3985
▁buff	-3986
▁cage	-3987
▁cann	-3988
▁char	-3989
▁comb	-3990
▁cute	-3991
▁done	-3992
▁even	-3993
▁gall	-3994
▁gaze	-3995
▁goat	-3996
▁here	-3997
▁hike	-3998
▁jeep	-3999
▁john	-4000
▁lean	-4001
▁news	-4002
▁pill	-4003
▁pins	-4004
▁pots	-4005
▁rows	-4006
▁shel	-4007
▁smoo	-4008
▁soon	-4009
▁sque	-4010
▁tail	-4011
▁than	-4012
▁unlo	-4013
▁whom	-4014
enance	-4015
ggings	-4016
igning	-4017
iously	-4018
sticks	-4019
vering	-4020
▁apart	-4021
▁belts	-4022
▁blood	-4023
▁cable	-4024
▁canad	-4025
▁cards	-4026
▁coast	-4027
▁cooks	-4028
▁flash	-4029
▁furry	-4030
▁gazes	-4031
▁human	-4032
▁labor	-4033
▁lobby	-4034
▁maneu	-4035
▁march	-4036
▁serve	-4037
▁shape	-4038
▁spark	-4039
▁stall	-4040
▁texas	-4041
▁torch	-4042
▁twirl	-4043
▁venue	-4044
closeup	-4045
estrian	-4046
icopter	-4047
▁amidst	-4048
▁blazer	-4049
▁boards	-4050
▁candle	-4051
▁canvas	-4052
▁divers	-4053
▁frozen	-4054
▁harves	-4055
▁hiding	-4056
▁hotdog	-4057
▁huddle	-4058
▁launch	-4059
▁patron	-4060
▁played	-4061
▁racers	-4062
▁single	-4063
▁skater	-4064
▁stilts	-4065
▁ticket	-4066
▁tribal	-4067
▁tripod	-4068
▁trucks	-4069
▁turned	-4070
▁upward	-4071
▁valley	-4072
▁victor	-4073
▁walked	-4074
▁washes	-4075
▁artwork	-4076
▁bouquet	-4077
▁brother	-4078
▁butterf	-4079
▁cameram	-4080
▁couples	-4081
▁gallery	-4082
▁incline	-4083
▁injured	-4084
▁juggles	-4085
▁leotard	-4086
▁located	-4087
▁monitor	-4088
▁morning	-4089
▁numbers	-4090
▁oranges	-4091
▁printed	-4092
▁quickly	-4093
▁rafting	-4094
▁rooftop	-4095
▁scarves	-4096
▁section	-4097
▁special	-4098
▁sprayed	-4099
▁workout	-4100
▁activity	-4101
▁branches	-4102
▁casually	-4103
▁chopping	-4104
▁collared	-4105
▁creating	-4106
▁crouched	-4107
▁displays	-4108
▁driveway	-4109
▁facility	-4110
▁leggings	-4111
▁lighting	-4112
▁portrait	-4113
▁products	-4114
▁roadside	-4115
▁sideways	-4116
▁stepping	-4117
▁toddlers	-4118
▁trashcan	-4119
▁workshop	-4120
spectators	-4121
▁celebrate	-4122
▁earphones	-4123
▁embracing	-4124
▁finishing	-4125
▁highchair	-4126
▁interview	-4127
▁involving	-4128
▁passersby	-4129
pedestrians	-4130
▁approaches	-4131
▁decorative	-4132
▁displaying	-4133
▁experiment	-4134
▁silhouette	-4135
▁contraption	-4136
▁interesting	-4137
▁quarterback	-4138
▁transportation	-4139
bu	-4140
py	-4141
aks	-4142
ata	-4143
cas	-4144
ged	-4145
isk	-4146
ldo	-4147
ney	-4148
opo	-4149
ora	-4150
pit	-4151
rer	-4152
tie	-4153
var	-4154
wai	-4155
war	-4156
ague	-4157
aker	-4158
amed	-4159
baby	-4160
bies	-4161
body	-4162
cake	-4163
entr	-4164
high	-4165
iage	-4166
iner	-4167
inet	-4168
ised	-4169
lent	-4170
lots	-4171
noon	-4172
rant	-4173
ries	-4174
rous	-4175
▁cot	-4176
▁gal	-4177
▁gla	-4178
▁icy	-4179
▁lat	-4180
▁maj	-4181
▁pay	-4182
▁sar	-4183
▁swe	-4184
▁sym	-4185
▁wig	-4186
annel	-4187
antly	-4188
armon	-4189
atory	-4190
bbles	-4191
chron	-4192
count	-4193
craft	-4194
eight	-4195
ifier	-4196
kiing	-4197
skate	-4198
sters	-4199
vices	-4200
wning	-4201
▁capt	-4202
▁conf	-4203
▁conv	-4204
▁deli	-4205
▁dest	-4206
▁dive	-4207
▁east	-4208
▁elmo	-4209
▁fell	-4210
▁fork	-4211
▁fort	-4212
▁gest	-4213
▁jogs	-4214
▁kilt	-4215
▁lass	-4216
▁late	-4217
▁love	-4218
▁menu	-4219
▁miss	-4220
▁need	-4221
▁pads	-4222
▁pale	-4223
▁peer	-4224
▁pops	-4225
▁prop	-4226
▁sees	-4227
▁task	-4228
▁text	-4229
ablish	-4230
adults	-4231
ailing	-4232
colate	-4233
coming	-4234
couple	-4235
ensive	-4236
igious	-4237
indian	-4238
nament	-4239
oodles	-4240
police	-4241
yellow	-4242
▁aband	-4243
▁bends	-4244
▁beret	-4245
▁brass	-4246
▁broad	-4247
▁built	-4248
▁colum	-4249
▁diner	-4250
▁ducks	-4251
▁every	-4252
▁grabs	-4253
▁gradu	-4254
▁guide	-4255
▁hawai	-4256
▁hills	-4257
▁metro	-4258
▁mount	-4259
▁overs	-4260
▁pilot	-4261
▁point	-4262
▁quiet	-4263
▁recor	-4264
▁rifle	-4265
▁rings	-4266
▁shiny	-4267
▁sidel	-4268
▁squee	-4269
▁staff	-4270
▁stoop	-4271
▁stump	-4272
▁surfs	-4273
▁teens	-4274
▁tiled	-4275
▁tooth	-4276
▁types	-4277
▁waist	-4278
ational	-4279
dressed	-4280
ination	-4281
leading	-4282
striped	-4283
umbling	-4284
▁almost	-4285
▁aprons	-4286
▁asians	-4287
▁begins	-4288
▁booths	-4289
▁bulldo	-4290
▁cherry	-4291
▁clouds	-4292
▁crates	-4293
▁fishes	-4294
▁french	-4295
▁gazing	-4296
▁harmon	-4297
▁images	-4298
▁indust	-4299
▁jumped	-4300
▁jumper	-4301
▁mechan	-4302
▁monkey	-4303
▁muzzle	-4304
▁pencil	-4305
▁pinata	-4306
▁really	-4307
▁sawing	-4308
▁scenic	-4309
▁scient	-4310
▁spring	-4311
▁trench	-4312
▁turban	-4313
▁unique	-4314
▁weight	-4315
▁writes	-4316
▁adjusts	-4317
▁america	-4318
▁arrange	-4319
▁bathtub	-4320
▁bedroom	-4321
▁brushes	-4322
▁classic	-4323
▁cleaner	-4324
▁designs	-4325
▁digital	-4326
▁foliage	-4327
▁heavily	-4328
▁illumin	-4329
▁olympic	-4330
▁overloo	-4331
▁painter	-4332
▁parents	-4333
▁pathway	-4334
▁pattern	-4335
▁peeking	-4336
▁seagull	-4337
▁service	-4338
▁sorting	-4339
▁stacked	-4340
▁strolls	-4341
▁tending	-4342
▁unhappy	-4343
▁bouncing	-4344
▁canadian	-4345
▁checkers	-4346
▁circular	-4347
▁concentr	-4348
▁dragging	-4349
▁dumpster	-4350
▁enthusia	-4351
▁grabbing	-4352
▁operates	-4353
▁raincoat	-4354
▁sniffing	-4355
▁sparring	-4356
▁synchron	-4357
▁afternoon	-4358
▁bicycling	-4359
▁butterfly	-4360
▁chocolate	-4361
▁displayed	-4362
▁establish	-4363
▁featuring	-4364
▁gesturing	-4365
▁recording	-4366
▁wakeboard	-4367
▁belongings	-4368
▁cellphones	-4369
▁chopsticks	-4370
▁containing	-4371
▁helicopter	-4372
▁presenting	-4373
▁tournament	-4374
▁decorations	-4375
▁parasailing	-4376
▁breakdancing	-4377
car	-4378
een	-4379
gie	-4380
hat	-4381
net	-4382
oto	-4383
phy	-4384
rit	-4385
yed	-4386
zes	-4387
▁er	-4388
▁gl	-4389
▁ph	-4390
▁py	-4391
▁xy	-4392
ades	-4393
apes	-4394
blue	-4395
ells	-4396
ense	-4397
esma	-4398
fish	-4399
iety	-4400
iger	-4401
keys	-4402
lled	-4403
mart	-4404
mill	-4405
mock	-4406
nequ	-4407
onge	-4408
rial	-4409
robe	-4410
they	-4411
utes	-4412
wear	-4413
▁bad	-4414
▁def	-4415
▁ela	-4416
▁had	-4417
▁imp	-4418
▁ing	-4419
▁kim	-4420
▁our	-4421
▁plu	-4422
▁pon	-4423
▁rav	-4424
▁say	-4425
▁sle	-4426
▁sol	-4427
▁sta	-4428
▁tap	-4429
apped	-4430
arium	-4431
beled	-4432
cause	-4433
ckeys	-4434
cloth	-4435
inder	-4436
itive	-4437
opoly	-4438
orted	-4439
osaur	-4440
paved	-4441
photo	-4442
sized	-4443
ution	-4444
▁anti	-4445
▁aqua	-4446
▁asce	-4447
▁brit	-4448
▁cast	-4449
▁coca	-4450
▁find	-4451
▁grab	-4452
▁hook	-4453
▁lion	-4454
▁lips	-4455
▁main	-4456
▁matt	-4457
▁much	-4458
▁rabb	-4459
▁riot	-4460
▁rush	-4461
▁shie	-4462
▁skyd	-4463
▁sund	-4464
▁tags	-4465
▁turt	-4466
▁vibr	-4467
▁vint	-4468
▁ware	-4469
▁xylo	-4470
alling	-4471
hockey	-4472
lights	-4473
lowing	-4474
middle	-4475
tender	-4476
▁arrow	-4477
▁baker	-4478
▁beads	-4479
▁canal	-4480
▁cigar	-4481
▁cries	-4482
▁deser	-4483
▁doesn	-4484
▁draws	-4485
▁easel	-4486
▁ident	-4487
▁india	-4488
▁lasso	-4489
▁marsh	-4490
▁masks	-4491
▁midst	-4492
▁mixer	-4493
▁murky	-4494
▁notes	-4495
▁peers	-4496
▁plain	-4497
▁pours	-4498
▁prete	-4499
▁skies	-4500
▁skull	-4501
▁spins	-4502
▁state	-4503
▁stuck	-4504
▁times	-4505
▁tired	-4506
▁toile	-4507
▁tuxed	-4508
▁upset	-4509
elderly	-4510
mercial	-4511
smiling	-4512
various	-4513
▁amount	-4514
▁babies	-4515
▁batman	-4516
▁bundle	-4517
▁buried	-4518
▁cannon	-4519
▁canoes	-4520
▁casino	-4521
▁chisel	-4522
▁clowns	-4523
▁draped	-4524
▁elabor	-4525
▁hallow	-4526
▁histor	-4527
▁judges	-4528
▁kisses	-4529
▁lively	-4530
▁loaded	-4531
▁looked	-4532
▁marble	-4533
▁nurses	-4534
▁packed	-4535
▁purses	-4536
▁scrubs	-4537
▁series	-4538
▁shaggy	-4539
▁shower	-4540
▁skills	-4541
▁skinny	-4542
▁sponge	-4543
▁sprays	-4544
▁stripe	-4545
▁trains	-4546
▁waiter	-4547
▁washer	-4548
▁banners	-4549
▁because	-4550
▁carrier	-4551
▁chewing	-4552
▁columns	-4553
▁complex	-4554
▁crayons	-4555
▁cycling	-4556
▁daytime	-4557
▁earring	-4558
▁farmers	-4559
▁feather	-4560
▁figures	-4561
▁filming	-4562
▁flannel	-4563
▁hammock	-4564
▁hydrant	-4565
▁labeled	-4566
▁mannequ	-4567
▁mexican	-4568
▁napping	-4569
▁package	-4570
▁product	-4571
▁protect	-4572
▁shirted	-4573
▁signing	-4574
▁speaker	-4575
▁support	-4576
▁tackled	-4577
▁unusual	-4578
▁vending	-4579
▁victory	-4580
▁vintage	-4581
▁walmart	-4582
▁accident	-4583
▁aquarium	-4584
▁bridesma	-4585
▁campfire	-4586
▁communic	-4587
▁crashing	-4588
▁darkened	-4589
▁dinosaur	-4590
▁european	-4591
▁followed	-4592
▁forested	-4593
▁hardwood	-4594
▁hawaiian	-4595
▁homemade	-4596
▁monopoly	-4597
▁notebook	-4598
▁numerous	-4599
▁sailboat	-4600
▁shoppers	-4601
▁silhouet	-4602
▁sledding	-4603
▁speeding	-4604
▁splashed	-4605
▁stocking	-4606
▁strapped	-4607
▁stringed	-4608
▁surgical	-4609
▁abandoned	-4610
▁bartender	-4611
▁cluttered	-4612
▁companion	-4613
▁conductor	-4614
▁directing	-4615
▁employees	-4616
▁fountains	-4617
▁gardening	-4618
▁halloween	-4619
▁hammering	-4620
▁harmonica	-4621
▁navigates	-4622
▁projector	-4623
▁religious	-4624
▁spotlight	-4625
▁squeezing	-4626
▁stretches	-4627
▁strolling	-4628
▁teammates	-4629
▁tracksuit	-4630
▁treadmill	-4631
▁warehouse	-4632
▁barefooted	-4633
▁commercial	-4634
▁industrial	-4635
▁laboratory	-4636
▁toothbrush	-4637
skateboarder	-4638
▁destination	-4639
▁maintenance	-4640
▁underground	-4641
▁waterskiing	-4642
▁cheerleading	-4643
▁synchronized	-4644
▁establishment	-4645
pr	-4646
abo	-4647
alt	-4648
bur	-4649
dri	-4650
ern	-4651
ils	-4652
ith	-4653
lim	-4654
mar	-4655
mot	-4656
omo	-4657
oms	-4658
opy	-4659
pie	-4660
ski	-4661
tem	-4662
tur	-4663
ume	-4664
wed	-4665
▁cu	-4666
▁id	-4667
▁ip	-4668
▁ny	-4669
bled	-4670
come	-4671
dark	-4672
emen	-4673
enga	-4674
flow	-4675
gger	-4676
icle	-4677
ided	-4678
ises	-4679
itiz	-4680
ngth	-4681
ongo	-4682
opes	-4683
pect	-4684
prot	-4685
redi	-4686
seat	-4687
ters	-4688
thed	-4689
uble	-4690
uzzy	-4691
vend	-4692
well	-4693
▁any	-4694
▁ast	-4695
▁bit	-4696
▁bor	-4697
▁cru	-4698
▁dam	-4699
▁fog	-4700
▁inc	-4701
▁mad	-4702
▁mes	-4703
▁mos	-4704
▁nun	-4705
▁oil	-4706
▁ran	-4707
▁scr	-4708
▁ske	-4709
▁ult	-4710
▁unf	-4711
▁usa	-4712
aking	-4713
atula	-4714
berry	-4715
camer	-4716
cases	-4717
eadow	-4718
ected	-4719
ester	-4720
fetti	-4721
gress	-4722
ieval	-4723
lacks	-4724
local	-4725
mming	-4726
opard	-4727
orkel	-4728
panic	-4729
ramid	-4730
riers	-4731
sping	-4732
stick	-4733
tting	-4734
viron	-4735
works	-4736
▁aged	-4737
▁ages	-4738
▁bump	-4739
▁cave	-4740
▁clar	-4741
▁conn	-4742
▁dess	-4743
▁disc	-4744
▁fill	-4745
▁inst	-4746
▁laid	-4747
▁logo	-4748
▁lush	-4749
▁mail	-4750
▁monk	-4751
▁pans	-4752
▁sear	-4753
▁shar	-4754
▁skim	-4755
▁slic	-4756
▁tarp	-4757
▁tutu	-4758
▁were	-4759
▁when	-4760
▁year	-4761
bbling	-4762
custom	-4763
ements	-4764
guards	-4765
ically	-4766
icemen	-4767
inting	-4768
leader	-4769
market	-4770
orange	-4771
shaped	-4772
surfer	-4773
unched	-4774
worker	-4775
▁await	-4776
▁award	-4777
▁beers	-4778
▁begin	-4779
▁bongo	-4780
▁boxer	-4781
▁brace	-4782
▁camps	-4783
▁citiz	-4784
▁crops	-4785
▁daily	-4786
▁desks	-4787
▁dolls	-4788
▁drawn	-4789
▁dryer	-4790
▁earth	-4791
▁expos	-4792
▁extre	-4793
▁fetch	-4794
▁flock	-4795
▁foggy	-4796
▁foods	-4797
▁fuzzy	-4798
▁greet	-4799
▁holid	-4800
▁jenga	-4801
▁kimon	-4802
▁laden	-4803
▁level	-4804
▁maybe	-4805
▁memor	-4806
▁named	-4807
▁patri	-4808
▁peaks	-4809
▁radio	-4810
▁rolls	-4811
▁seven	-4812
▁shack	-4813
▁shawl	-4814
▁shing	-4815
▁south	-4816
▁sunsh	-4817
▁thick	-4818
▁tiger	-4819
▁visor	-4820
▁weigh	-4821
▁wrist	-4822
country	-4823
members	-4824
mentary	-4825
parents	-4826
players	-4827
thedral	-4828
vendors	-4829
▁acting	-4830
▁attent	-4831
▁barely	-4832
▁battle	-4833
▁bounds	-4834
▁buffet	-4835
▁camels	-4836
▁chased	-4837
▁collie	-4838
▁column	-4839
▁confus	-4840
▁cotton	-4841
▁crawls	-4842
▁create	-4843
▁double	-4844
▁drying	-4845
▁facial	-4846
▁fedora	-4847
▁fellow	-4848
▁fields	-4849
▁frying	-4850
▁grinds	-4851
▁guards	-4852
▁harbor	-4853
▁league	-4854
▁lining	-4855
▁marked	-4856
▁marker	-4857
▁mascot	-4858
▁meadow	-4859
▁mouths	-4860
▁mowing	-4861
▁muslim	-4862
▁parent	-4863
▁picket	-4864
▁pirate	-4865
▁poodle	-4866
▁puppet	-4867
▁releas	-4868
▁resort	-4869
▁return	-4870
▁rustic	-4871
▁season	-4872
▁slacks	-4873
▁snacks	-4874
▁speeds	-4875
▁squats	-4876
▁stance	-4877
▁stores	-4878
▁strugg	-4879
▁temple	-4880
▁termin	-4881
▁though	-4882
▁trophy	-4883
▁turkey	-4884
▁turtle	-4885
▁typing	-4886
▁videot	-4887
▁wilder	-4888
brunette	-4889
fighters	-4890
numerous	-4891
redients	-4892
tourists	-4893
▁adorned	-4894
▁artists	-4895
▁bananas	-4896
▁barbecu	-4897
▁barrels	-4898
▁beating	-4899
▁blurred	-4900
▁british	-4901
▁casting	-4902
▁environ	-4903
▁examine	-4904
▁exiting	-4905
▁hotdogs	-4906
▁kickbox	-4907
▁leopard	-4908
▁licking	-4909
▁mounted	-4910
▁muzzled	-4911
▁paralle	-4912
▁pointed	-4913
▁pyramid	-4914
▁seafood	-4915
▁seating	-4916
▁skyline	-4917
▁snorkel	-4918
▁strings	-4919
▁topless	-4920
▁transit	-4921
▁travels	-4922
▁univers	-4923
▁upwards	-4924
▁variety	-4925
▁vibrant	-4926
▁warming	-4927
▁wheeled	-4928
customers	-4929
musicians	-4930
▁backseat	-4931
▁bodysuit	-4932
▁defender	-4933
▁designed	-4934
▁downhill	-4935
▁employee	-4936
▁hispanic	-4937
▁lanterns	-4938
▁mattress	-4939
▁mcdonald	-4940
▁medieval	-4941
▁monitors	-4942
▁muscular	-4943
▁ordering	-4944
▁prepared	-4945
▁punching	-4946
▁purchase	-4947
▁railings	-4948
▁separate	-4949
▁starring	-4950
▁striking	-4951
▁trotting	-4952
▁ultimate	-4953
▁woodland	-4954
▁acrobatic	-4955
▁cameraman	-4956
▁cathedral	-4957
▁character	-4958
▁condition	-4959
▁fashioned	-4960
▁measuring	-4961
▁miniature	-4962
▁necklaces	-4963
▁reception	-4964
▁scientist	-4965
▁sidelines	-4966
▁skydiving	-4967
▁somewhere	-4968
▁vacuuming	-4969
▁wrestlers	-4970
▁xylophone	-4971
▁activities	-4972
▁attractive	-4973
▁characters	-4974
▁cigarettes	-4975
▁colorfully	-4976
▁completing	-4977
▁conducting	-4978
▁exercising	-4979
▁greyhounds	-4980
▁sculptures	-4981
▁snowboards	-4982
▁sunbathing	-4983
▁tablecloth	-4984
▁wilderness	-4985
firefighters	-4986
▁cheerleader	-4987
▁environment	-4988
▁illuminated	-4989
▁ingredients	-4990
▁mountainous	-4991
▁mountaintop	-4992
▁silhouetted	-4993
▁supermarket	-4994
▁watermelons	-4995
▁crosscountry	-4996
▁rollerskates	-4997
▁demonstration	-4998
▁advertisements	-4999
va	-5000
▁-	-5001
ami	-5002
bea	-5003
bot	-5004
bra	-5005
bre	-5006
chi	-5007
cho	-5008
cow	-5009
gle	-5010
hio	-5011
ios	-5012
mil	-5013
oma	-5014
pid	-5015
por	-5016
she	-5017
ten	-5018
uds	-5019
une	-5020
vor	-5021
yon	-5022
zor	-5023
▁gy	-5024
▁ni	-5025
▁ol	-5026
▁va	-5027
alks	-5028
anse	-5029
asts	-5030
atee	-5031
bour	-5032
cart	-5033
cept	-5034
cier	-5035
club	-5036
cock	-5037
coho	-5038
corn	-5039
dirt	-5040
eddy	-5041
fold	-5042
ford	-5043
guys	-5044
held	-5045
ider	-5046
igan	-5047
ilor	-5048
ints	-5049
iosk	-5050
ison	-5051
ivil	-5052
lift	-5053
ongs	-5054
oper	-5055
orts	-5056
oses	-5057
otic	-5058
roud	-5059
sold	-5060
sure	-5061
temp	-5062
unte	-5063
vern	-5064
yset	-5065
▁ado	-5066
▁aer	-5067
▁aff	-5068
▁anc	-5069
▁ara	-5070
▁axe	-5071
▁bib	-5072
▁bon	-5073
▁cry	-5074
▁det	-5075
▁fer	-5076
▁flu	-5077
▁gap	-5078
▁gig	-5079
▁hip	-5080
▁hop	-5081
▁hun	-5082
▁kil	-5083
▁kit	-5084
▁moo	-5085
▁nin	-5086
▁pac	-5087
▁rag	-5088
▁rem	-5089
▁sys	-5090
▁tam	-5091
▁tin	-5092
ained	-5093
angle	-5094
aping	-5095
bably	-5096
bikes	-5097
cakes	-5098
color	-5099
dling	-5100
essor	-5101
ggers	-5102
icans	-5103
kings	-5104
naiss	-5105
nders	-5106
oming	-5107
orous	-5108
piece	-5109
scent	-5110
storm	-5111
urban	-5112
velin	-5113
wered	-5114
▁bend	-5115
▁bows	-5116
▁cash	-5117
▁cats	-5118
▁clap	-5119
▁cock	-5120
▁dots	-5121
▁drag	-5122
▁haul	-5123
▁heal	-5124
▁hour	-5125
▁hung	-5126
▁ipod	-5127
▁lime	-5128
▁magn	-5129
▁mule	-5130
▁nude	-5131
▁pray	-5132
▁prev	-5133
▁puzz	-5134
▁quad	-5135
▁rack	-5136
▁resp	-5137
▁rugs	-5138
▁sash	-5139
▁saus	-5140
▁slow	-5141
▁soup	-5142
▁spin	-5143
▁stea	-5144
▁swan	-5145
▁test	-5146
▁ties	-5147
▁tips	-5148
▁wand	-5149
▁zomb	-5150
▁zone	-5151
antily	-5152
camera	-5153
cement	-5154
esters	-5155
family	-5156
filled	-5157
ifying	-5158
issors	-5159
itical	-5160
minton	-5161
monial	-5162
rimmed	-5163
stroke	-5164
turned	-5165
ulting	-5166
vorite	-5167
▁afric	-5168
▁angle	-5169
▁anvil	-5170
▁badge	-5171
▁beams	-5172
▁belly	-5173
▁brind	-5174
▁bring	-5175
▁broch	-5176
▁bunny	-5177
▁carou	-5178
▁champ	-5179
▁civil	-5180
▁cocon	-5181
▁crate	-5182
▁crest	-5183
▁disco	-5184
▁drain	-5185
▁eager	-5186
▁enclo	-5187
▁fixes	-5188
▁flood	-5189
▁gallo	-5190
▁gowns	-5191
▁grown	-5192
▁husky	-5193
▁inner	-5194
▁kiosk	-5195
▁lands	-5196
▁lanes	-5197
▁latin	-5198
▁legos	-5199
▁lemon	-5200
▁licks	-5201
▁lives	-5202
▁lower	-5203
▁major	-5204
▁merry	-5205
▁mouse	-5206
▁nails	-5207
▁noses	-5208
▁nurse	-5209
▁occup	-5210
▁occur	-5211
▁olive	-5212
▁ornam	-5213
▁pedal	-5214
▁piles	-5215
▁pipes	-5216
▁plank	-5217
▁posed	-5218
▁proud	-5219
▁quest	-5220
▁rafts	-5221
▁rails	-5222
▁raise	-5223
▁razor	-5224
▁recre	-5225
▁relay	-5226
▁rusty	-5227
▁saris	-5228
▁sharp	-5229
▁soars	-5230
▁sound	-5231
▁split	-5232
▁spots	-5233
▁squad	-5234
▁stars	-5235
▁swamp	-5236
▁symbo	-5237
▁techn	-5238
▁teddy	-5239
▁those	-5240
▁tubes	-5241
▁tying	-5242
▁vocal	-5243
▁words	-5244
▁woven	-5245
working	-5246
▁aboard	-5247
▁advent	-5248
▁aiming	-5249
▁alcoho	-5250
▁attach	-5251
▁attack	-5252
▁barric	-5253
▁blower	-5254
▁boogie	-5255
▁bowtie	-5256
▁boxers	-5257
▁breath	-5258
▁bronco	-5259
▁brooms	-5260
▁canyon	-5261
▁circus	-5262
▁conven	-5263
▁direct	-5264
▁domino	-5265
▁dragon	-5266
▁flames	-5267
▁floors	-5268
▁framed	-5269
▁goatee	-5270
▁grills	-5271
▁hambur	-5272
▁hearts	-5273
▁kicked	-5274
▁liquor	-5275
▁nearly	-5276
▁pigeon	-5277
▁pillar	-5278
▁polish	-5279
▁pushed	-5280
▁raking	-5281
▁ravine	-5282
▁saddle	-5283
▁sailor	-5284
▁sample	-5285
▁seesaw	-5286
▁senior	-5287
▁slopes	-5288
▁smooth	-5289
▁strike	-5290
▁stunts	-5291
▁submer	-5292
▁swords	-5293
▁system	-5294
▁talent	-5295
▁weapon	-5296
▁within	-5297
atically	-5298
football	-5299
military	-5300
▁address	-5301
▁ancient	-5302
▁bikinis	-5303
▁bottoms	-5304
▁butcher	-5305
▁checked	-5306
▁clothed	-5307
▁contemp	-5308
▁creates	-5309
▁damaged	-5310
▁dessert	-5311
▁devices	-5312
▁doctors	-5313
▁expanse	-5314
▁flaming	-5315
▁flowery	-5316
▁glacier	-5317
▁handbag	-5318
▁hunched	-5319
▁husband	-5320
▁jockeys	-5321
▁missing	-5322
▁mittens	-5323
▁patrons	-5324
▁popcorn	-5325
▁propped	-5326
▁raining	-5327
▁relaxes	-5328
▁renaiss	-5329
▁ribbons	-5330
▁scaling	-5331
▁scratch	-5332
▁seattle	-5333
▁shorter	-5334
▁sleeves	-5335
▁sooners	-5336
▁spatula	-5337
▁texting	-5338
▁thought	-5339
▁upright	-5340
▁whistle	-5341
▁written	-5342
beautiful	-5343
▁barriers	-5344
▁blocking	-5345
▁boarding	-5346
▁cardigan	-5347
▁climbers	-5348
▁confetti	-5349
▁crafting	-5350
▁deserted	-5351
▁dropping	-5352
▁elevated	-5353
▁favorite	-5354
▁features	-5355
▁finished	-5356
▁grasping	-5357
▁handheld	-5358
▁knitting	-5359
▁lipstick	-5360
▁newlywed	-5361
▁overlook	-5362
▁parallel	-5363
▁piercing	-5364
▁pitching	-5365
▁portable	-5366
▁presents	-5367
▁probably	-5368
▁progress	-5369
▁scissors	-5370
▁scooping	-5371
▁shouting	-5372
▁snowball	-5373
▁stirring	-5374
▁sundress	-5375
▁sunshine	-5376
▁superman	-5377
▁tomatoes	-5378
▁watering	-5379
protesters	-5380
▁assembled	-5381
▁assisting	-5382
▁badminton	-5383
▁blindfold	-5384
▁briefcase	-5385
▁bulldozer	-5386
▁clutching	-5387
▁connected	-5388
▁elaborate	-5389
▁excitedly	-5390
▁feathered	-5391
▁fireworks	-5392
▁jumpsuits	-5393
▁nightclub	-5394
▁personnel	-5395
▁policemen	-5396
▁political	-5397
▁professor	-5398
▁riverbank	-5399
▁scattered	-5400
▁stretched	-5401
▁strollers	-5402
▁unloading	-5403
▁waterside	-5404
▁ceremonial	-5405
▁completely	-5406
▁congregate	-5407
▁convention	-5408
▁expression	-5409
▁girlfriend	-5410
▁harvesting	-5411
▁sprinklers	-5412
▁university	-5413
▁accompanied	-5414
▁arrangement	-5415
▁bridesmaids	-5416
▁constructed	-5417
▁convenience	-5418
▁information	-5419
▁microscopes	-5420
▁renaissance	-5421
▁socializing	-5422
▁wheelchairs	-5423
▁wineglasses	-5424
▁enthusiastic	-5425
ev	-5426
fo	-5427
sn	-5428
su	-5429
ta	-5430
tw	-5431
wk	-5432
zy	-5433
asm	-5434
bob	-5435
col	-5436
dot	-5437
dra	-5438
efs	-5439
hic	-5440
hoe	-5441
kid	-5442
kno	-5443
lly	-5444
lph	-5445
ody	-5446
off	-5447
oid	-5448
orm	-5449
ota	-5450
pad	-5451
pen	-5452
ppy	-5453
ris	-5454
thy	-5455
uge	-5456
uma	-5457
ura	-5458
▁fi	-5459
▁ir	-5460
▁ok	-5461
▁uk	-5462
▁ya	-5463
▁ze	-5464
agne	-5465
aila	-5466
arat	-5467
base	-5468
beat	-5469
cape	-5470
care	-5471
city	-5472
cuit	-5473
elve	-5474
enna	-5475
fast	-5476
fron	-5477
haps	-5478
helf	-5479
hift	-5480
hine	-5481
hoop	-5482
illa	-5483
iors	-5484
ivan	-5485
iven	-5486
kier	-5487
lone	-5488
mble	-5489
omet	-5490
over	-5491
pass	-5492
phic	-5493
pper	-5494
resh	-5495
rong	-5496
scot	-5497
seen	-5498
snow	-5499
swim	-5500
todd	-5501
toon	-5502
ware	-5503
zard	-5504
▁aid	-5505
▁ama	-5506
▁ann	-5507
▁ber	-5508
▁bud	-5509
▁cul	-5510
▁dar	-5511
▁exc	-5512
▁fam	-5513
▁gum	-5514
▁hed	-5515
▁jog	-5516
▁ket	-5517
▁lie	-5518
▁lou	-5519
▁mac	-5520
▁mag	-5521
▁mis	-5522
▁oar	-5523
▁reh	-5524
▁sew	-5525
▁sna	-5526
▁toe	-5527
▁unw	-5528
▁vio	-5529
▁zip	-5530
▁zoo	-5531
about	-5532
aging	-5533
ances	-5534
anged	-5535
bling	-5536
boats	-5537
dered	-5538
ermen	-5539
geons	-5540
glass	-5541
iding	-5542
ified	-5543
ipped	-5544
known	-5545
lapid	-5546
letes	-5547
ously	-5548
pants	-5549
phalt	-5550
point	-5551
umber	-5552
water	-5553
▁answ	-5554
▁bark	-5555
▁beat	-5556
▁boss	-5557
▁butt	-5558
▁chat	-5559
▁chem	-5560
▁chip	-5561
▁cler	-5562
▁cola	-5563
▁cows	-5564
▁curt	-5565
▁deer	-5566
▁digs	-5567
▁dram	-5568
▁file	-5569
▁film	-5570
▁flee	-5571
▁foam	-5572
▁grow	-5573
▁harp	-5574
▁ital	-5575
▁keys	-5576
▁know	-5577
▁last	-5578
▁limb	-5579
▁lock	-5580
▁lost	-5581
▁mats	-5582
▁mind	-5583
▁mops	-5584
▁nike	-5585
▁peak	-5586
▁peel	-5587
▁ping	-5588
▁plac	-5589
▁proc	-5590
▁prov	-5591
▁punk	-5592
▁rake	-5593
▁real	-5594
▁rubs	-5595
▁seam	-5596
▁snap	-5597
▁solo	-5598
▁spir	-5599
▁vert	-5600
▁want	-5601
▁your	-5602
aratus	-5603
bikers	-5604
capped	-5605
cowboy	-5606
ctions	-5607
elcome	-5608
father	-5609
fronts	-5610
groups	-5611
hammer	-5612
rested	-5613
school	-5614
tennis	-5615
trucks	-5616
▁accep	-5617
▁angry	-5618
▁armed	-5619
▁armor	-5620
▁baked	-5621
▁baton	-5622
▁bites	-5623
▁bloss	-5624
▁bones	-5625
▁bushy	-5626
▁cabin	-5627
▁cargo	-5628
▁caric	-5629
▁carve	-5630
▁chips	-5631
▁chunk	-5632
▁claus	-5633
▁clock	-5634
▁crazy	-5635
▁curve	-5636
▁delic	-5637
▁depic	-5638
▁deter	-5639
▁dolph	-5640
▁early	-5641
▁elbow	-5642
▁fairy	-5643
▁fills	-5644
▁flour	-5645
▁found	-5646
▁given	-5647
▁goats	-5648
▁holes	-5649
▁least	-5650
▁miami	-5651
▁obama	-5652
▁overh	-5653
▁parts	-5654
▁pengu	-5655
▁pleas	-5656
▁plush	-5657
▁posts	-5658
▁pride	-5659
▁respo	-5660
▁robot	-5661
▁ruins	-5662
▁sacks	-5663
▁salad	-5664
▁scout	-5665
▁shady	-5666
▁sheer	-5667
▁sling	-5668
▁snaps	-5669
▁solid	-5670
▁spike	-5671
▁steam	-5672
▁storm	-5673
▁strap	-5674
▁strum	-5675
▁theme	-5676
▁tiara	-5677
▁tongs	-5678
▁trays	-5679
▁tribe	-5680
▁tunic	-5681
▁unfin	-5682
▁upper	-5683
▁whole	-5684
▁zebra	-5685
ailable	-5686
allenge	-5687
breaker	-5688
dancers	-5689
fashion	-5690
flowers	-5691
ingerie	-5692
ldering	-5693
onsored	-5694
ressive	-5695
rolling	-5696
skating	-5697
toddler	-5698
wheeler	-5699
▁admire	-5700
▁angels	-5701
▁appare	-5702
▁apples	-5703
▁arrive	-5704
▁automo	-5705
▁bakery	-5706
▁banana	-5707
▁barren	-5708
▁breaks	-5709
▁bronze	-5710
▁canopy	-5711
▁carved	-5712
▁cattle	-5713
▁cheeks	-5714
▁cinder	-5715
▁cloths	-5716
▁combat	-5717
▁cooler	-5718
▁crowds	-5719
▁crowns	-5720
▁curved	-5721
▁disney	-5722
▁dotted	-5723
▁escape	-5724
▁extend	-5725
▁footbr	-5726
▁ginger	-5727
▁glider	-5728
▁gloved	-5729
▁haired	-5730
▁handed	-5731
▁jewish	-5732
▁leaned	-5733
▁legged	-5734
▁length	-5735
▁letter	-5736
▁lovely	-5737
▁masked	-5738
▁master	-5739
▁mature	-5740
▁padded	-5741
▁passed	-5742
▁pauses	-5743
▁petals	-5744
▁pinned	-5745
▁poking	-5746
▁priest	-5747
▁remote	-5748
▁repres	-5749
▁rolled	-5750
▁rubble	-5751
▁saxoph	-5752
▁saying	-5753
▁scales	-5754
▁served	-5755
▁sheets	-5756
▁shines	-5757
▁sister	-5758
▁stacks	-5759
▁starts	-5760
▁states	-5761
▁symbol	-5762
▁toilet	-5763
▁tossed	-5764
▁towels	-5765
▁tuxedo	-5766
▁wiping	-5767
▁wonder	-5768
baseball	-5769
▁antique	-5770
▁applies	-5771
▁archway	-5772
▁asphalt	-5773
▁backhoe	-5774
▁backlit	-5775
▁barking	-5776
▁baseman	-5777
▁besides	-5778
▁blocked	-5779
▁braided	-5780
▁brindle	-5781
▁bundled	-5782
▁capture	-5783
▁carried	-5784
▁chained	-5785
▁cockpit	-5786
▁cookies	-5787
▁coolers	-5788
▁cowgirl	-5789
▁cradles	-5790
▁directs	-5791
▁donkeys	-5792
▁dunking	-5793
▁eagerly	-5794
▁embrace	-5795
▁emerges	-5796
▁flowing	-5797
▁forming	-5798
▁gliding	-5799
▁handles	-5800
▁headset	-5801
▁herding	-5802
▁huddled	-5803
▁inspect	-5804
▁javelin	-5805
▁kimonos	-5806
▁leashes	-5807
▁lowered	-5808
▁marches	-5809
▁massive	-5810
▁message	-5811
▁mothers	-5812
▁mustard	-5813
▁padding	-5814
▁passion	-5815
▁peacock	-5816
▁perched	-5817
▁perhaps	-5818
▁poodles	-5819
▁posters	-5820
▁purchas	-5821
▁refresh	-5822
▁rehears	-5823
▁returns	-5824
▁rowboat	-5825
▁shelves	-5826
▁singers	-5827
▁slicing	-5828
▁snowman	-5829
▁stretch	-5830
▁stylish	-5831
▁surfers	-5832
▁tambour	-5833
▁terrier	-5834
▁tightro	-5835
▁torches	-5836
▁tugging	-5837
▁unident	-5838
▁unknown	-5839
▁utility	-5840
▁varying	-5841
▁volunte	-5842
▁weapons	-5843
▁winding	-5844
▁workman	-5845
▁yelling	-5846
bicyclist	-5847
lapidated	-5848
shirtless	-5849
▁artistic	-5850
▁backward	-5851
▁balanced	-5852
▁bounding	-5853
▁campsite	-5854
▁carousel	-5855
▁checkout	-5856
▁citizens	-5857
▁clarinet	-5858
▁clearing	-5859
▁confused	-5860
▁contents	-5861
▁crawling	-5862
▁daylight	-5863
▁designer	-5864
▁dominoes	-5865
▁dribbles	-5866
▁drilling	-5867
▁earrings	-5868
▁exciting	-5869
▁feathers	-5870
▁fingerna	-5871
▁floaties	-5872
▁greenery	-5873
▁handling	-5874
▁heavyset	-5875
▁historic	-5876
▁includes	-5877
▁interact	-5878
▁lingerie	-5879
▁memorial	-5880
▁merchant	-5881
▁offering	-5882
▁pacifier	-5883
▁partying	-5884
▁passerby	-5885
▁reclines	-5886
▁register	-5887
▁roadwork	-5888
▁rounding	-5889
▁scantily	-5890
▁seagulls	-5891
▁shingles	-5892
▁suburban	-5893
▁sweaters	-5894
▁terminal	-5895
▁trimming	-5896
▁tumbling	-5897
▁vacation	-5898
▁vertical	-5899
▁vocalist	-5900
photograph	-5901
▁americans	-5902
▁apparatus	-5903
▁ascending	-5904
▁assistant	-5905
▁attendant	-5906
▁available	-5907
▁beginning	-5908
▁bookshelf	-5909
▁cartwheel	-5910
▁challenge	-5911
▁champagne	-5912
▁community	-5913
▁completed	-5914
▁contempla	-5915
▁elephants	-5916
▁exploring	-5917
▁fireplace	-5918
▁hairstyle	-5919
▁identical	-5920
▁makeshift	-5921
▁mannequin	-5922
▁mcdonalds	-5923
▁operation	-5924
▁opponents	-5925
▁sailboats	-5926
▁searching	-5927
▁shoeshine	-5928
▁spongebob	-5929
▁struggles	-5930
▁suitcases	-5931
▁sweatsuit	-5932
▁backstroke	-5933
▁barbecuing	-5934
▁caricature	-5935
▁collecting	-5936
▁comforting	-5937
▁conditions	-5938
▁decorating	-5939
▁descending	-5940
▁elementary	-5941
▁equestrian	-5942
▁excitement	-5943
▁exhibition	-5944
▁eyeglasses	-5945
▁graffitied	-5946
▁installing	-5947
▁magnifying	-5948
▁motorbikes	-5949
▁multicolor	-5950
▁parachutes	-5951
▁pedestrian	-5952
▁pinstriped	-5953
▁positioned	-5954
▁possession	-5955
▁snowcapped	-5956
▁struggling	-5957
▁unfinished	-5958
▁vegetation	-5959
▁watercraft	-5960
▁watermelon	-5961
▁attentively	-5962
▁blindfolded	-5963
▁businessman	-5964
▁clothesline	-5965
▁competitive	-5966
▁competitors	-5967
▁expressions	-5968
▁instructing	-5969
▁interviewed	-5970
▁parachuting	-5971
▁storefronts	-5972
▁sweatshirts	-5973
▁windbreaker	-5974
▁concentrates	-5975
▁recreational	-5976
▁photographing	-5977
▁skateboarders	-5978
fl	-5979
ja	-5980
oy	-5981
aid	-5982
bas	-5983
ben	-5984
bul	-5985
coo	-5986
die	-5987
ele	-5988
gap	-5989
gas	-5990
gee	-5991
iac	-5992
igs	-5993
ksw	-5994
lah	-5995
lem	-5996
new	-5997
oke	-5998
olf	-5999
olo	-6000
oof	-6001
orc	-6002
orn	-6003
osc	-6004
par	-6005
pic	-6006
rep	-6007
rew	-6008
sps	-6009
sty	-6010
tim	-6011
uce	-6012
uct	-6013
ule	-6014
una	-6015
wet	-6016
xim	-6017
you	-6018
zil	-6019
▁ec	-6020
▁em	-6021
▁si	-6022
▁zo	-6023
abil	-6024
ader	-6025
agen	-6026
ails	-6027
ains	-6028
aler	-6029
amic	-6030
bell	-6031
bing	-6032
bird	-6033
cars	-6034
cast	-6035
clad	-6036
coal	-6037
cola	-6038
comm	-6039
ctop	-6040
dden	-6041
deep	-6042
dish	-6043
eapp	-6044
eere	-6045
emer	-6046
emet	-6047
eria	-6048
fort	-6049
gray	-6050
hite	-6051
hold	-6052
hole	-6053
icef	-6054
idge	-6055
ifts	-6056
ills	-6057
inas	-6058
ique	-6059
iser	-6060
itan	-6061
ited	-6062
izes	-6063
kely	-6064
lege	-6065
logy	-6066
lons	-6067
maid	-6068
mely	-6069
mons	-6070
muff	-6071
nded	-6072
neck	-6073
nely	-6074
ores	-6075
pain	-6076
pite	-6077
pong	-6078
race	-6079
rand	-6080
rene	-6081
rero	-6082
rise	-6083
shop	-6084
sion	-6085
ston	-6086
tish	-6087
type	-6088
ubby	-6089
unds	-6090
ushi	-6091
vest	-6092
wdri	-6093
weed	-6094
with	-6095
yond	-6096
zens	-6097
▁bay	-6098
▁bee	-6099
▁cub	-6100
▁dip	-6101
▁dug	-6102
▁era	-6103
▁fal	-6104
▁fid	-6105
▁foo	-6106
▁fru	-6107
▁gay	-6108
▁gen	-6109
▁gor	-6110
▁hon	-6111
▁hud	-6112
▁jar	-6113
▁led	-6114
▁lid	-6115
▁lim	-6116
▁lin	-6117
▁lla	-6118
▁nic	-6119
▁pas	-6120
▁pep	-6121
▁pom	-6122
▁raw	-6123
▁rim	-6124
▁rit	-6125
▁san	-6126
▁sat	-6127
▁sed	-6128
▁sip	-6129
▁som	-6130
▁spa	-6131
▁suv	-6132
▁tip	-6133
▁via	-6134
▁vig	-6135
▁web	-6136
allic	-6137
amaha	-6138
andex	-6139
atown	-6140
bench	-6141
berty	-6142
bucks	-6143
cited	-6144
comot	-6145
drawn	-6146
eling	-6147
enger	-6148
field	-6149
fives	-6150
gnant	-6151
icked	-6152
ickey	-6153
ilted	-6154
inary	-6155
ingly	-6156
ision	-6157
leton	-6158
mbone	-6159
muffs	-6160
rodeo	-6161
shore	-6162
sting	-6163
store	-6164
tends	-6165
tured	-6166
ulele	-6167
umble	-6168
using	-6169
verty	-6170
xture	-6171
▁arid	-6172
▁bagg	-6173
▁bats	-6174
▁best	-6175
▁bord	-6176
▁buoy	-6177
▁came	-6178
▁chan	-6179
▁coke	-6180
▁cord	-6181
▁coun	-6182
▁crab	-6183
▁crib	-6184
▁crut	-6185
▁disk	-6186
▁drop	-6187
▁dunk	-6188
▁dyed	-6189
▁else	-6190
▁evil	-6191
▁feel	-6192
▁fine	-6193
▁flea	-6194
▁flex	-6195
▁frog	-6196
▁grid	-6197
▁hero	-6198
▁hips	-6199
▁jazz	-6200
▁loud	-6201
▁mesh	-6202
▁milk	-6203
▁ming	-6204
▁nine	-6205
▁once	-6206
▁oxen	-6207
▁pane	-6208
▁pant	-6209
▁paws	-6210
▁phys	-6211
▁poun	-6212
▁prun	-6213
▁rear	-6214
▁rode	-6215
▁russ	-6216
▁safe	-6217
▁scri	-6218
▁shed	-6219
▁shru	-6220
▁slab	-6221
▁slam	-6222
▁slip	-6223
▁slot	-6224
▁soil	-6225
▁somb	-6226
▁sons	-6227
▁stay	-6228
▁sumo	-6229
▁torn	-6230
▁tram	-6231
▁trou	-6232
▁used	-6233
▁vast	-6234
▁ways	-6235
▁wigs	-6236
▁wool	-6237
▁word	-6238
ancing	-6239
basket	-6240
crowds	-6241
ctopus	-6242
during	-6243
estern	-6244
ethnic	-6245
gentle	-6246
gyback	-6247
handed	-6248
ielder	-6249
lagers	-6250
lahoma	-6251
moting	-6252
motorc	-6253
nology	-6254
ograph	-6255
orting	-6256
oscope	-6257
porary	-6258
rently	-6259
scotch	-6260
stance	-6261
teenag	-6262
usting	-6263
▁amish	-6264
▁areas	-6265
▁avoid	-6266
▁bears	-6267
▁blank	-6268
▁buggy	-6269
▁build	-6270
▁buses	-6271
▁cafet	-6272
▁casts	-6273
▁cause	-6274
▁cemet	-6275
▁chews	-6276
▁conso	-6277
▁crush	-6278
▁deere	-6279
▁dolly	-6280
▁domin	-6281
▁drops	-6282
▁dunes	-6283
▁elder	-6284
▁enfor	-6285
▁exits	-6286
▁force	-6287
▁frown	-6288
▁gated	-6289
▁geish	-6290
▁grima	-6291
▁grins	-6292
▁henna	-6293
▁hikes	-6294
▁hilly	-6295
▁horns	-6296
▁jacks	-6297
▁kilts	-6298
▁kites	-6299
▁known	-6300
▁lakes	-6301
▁loose	-6302
▁magic	-6303
▁mates	-6304
▁medit	-6305
▁megap	-6306
▁multi	-6307
▁owner	-6308
▁peach	-6309
▁peeks	-6310
▁piled	-6311
▁pokes	-6312
▁puffy	-6313
▁pursu	-6314
▁ramps	-6315
▁roses	-6316
▁sales	-6317
▁satch	-6318
▁scale	-6319
▁scoop	-6320
▁scrap	-6321
▁seeds	-6322
▁separ	-6323
▁shave	-6324
▁sight	-6325
▁snake	-6326
▁snowf	-6327
▁sorts	-6328
▁spear	-6329
▁squat	-6330
▁steer	-6331
▁stirs	-6332
▁strip	-6333
▁taste	-6334
▁texts	-6335
▁these	-6336
▁think	-6337
▁toast	-6338
▁topic	-6339
▁trims	-6340
▁uncom	-6341
▁unwra	-6342
▁utens	-6343
▁vegas	-6344
▁wades	-6345
▁weave	-6346
▁weeds	-6347
▁weird	-6348
▁whisp	-6349
▁wipes	-6350
▁wraps	-6351
▁write	-6352
aration	-6353
college	-6354
excited	-6355
friends	-6356
icycles	-6357
ificial	-6358
kswagen	-6359
orously	-6360
packing	-6361
picture	-6362
shirted	-6363
strated	-6364
teenage	-6365
tourist	-6366
ughters	-6367
viewing	-6368
▁actors	-6369
▁adjust	-6370
▁africa	-6371
▁asking	-6372
▁beards	-6373
▁bearer	-6374
▁beyond	-6375
▁boston	-6376
▁bounce	-6377
▁bowler	-6378
▁brazil	-6379
▁bridal	-6380
▁bungee	-6381
▁cables	-6382
▁camper	-6383
▁chubby	-6384
▁closer	-6385
▁cooked	-6386
▁cookie	-6387
▁county	-6388
▁crayon	-6389
▁cruise	-6390
▁decide	-6391
▁eatery	-6392
▁engage	-6393
▁except	-6394
▁firing	-6395
▁floppy	-6396
▁fluore	-6397
▁forces	-6398
▁formed	-6399
▁fourth	-6400
▁frames	-6401
▁frolic	-6402
▁govern	-6403
▁grooms	-6404
▁halter	-6405
▁health	-6406
▁helped	-6407
▁hidden	-6408
▁inline	-6409
▁island	-6410
▁kettle	-6411
▁kiddie	-6412
▁kitten	-6413
▁landed	-6414
▁layers	-6415
▁lemons	-6416
▁likely	-6417
▁litter	-6418
▁lonely	-6419
▁mickey	-6420
▁minisk	-6421
▁napkin	-6422
▁nicely	-6423
▁opened	-6424
▁orders	-6425
▁owners	-6426
▁partly	-6427
▁patrol	-6428
▁pickup	-6429
▁poised	-6430
▁postal	-6431
▁potted	-6432
▁powder	-6433
▁prayer	-6434
▁prints	-6435
▁prizes	-6436
▁puzzle	-6437
▁quaint	-6438
▁rabbit	-6439
▁retail	-6440
▁roping	-6441
▁rounds	-6442
▁runway	-6443
▁sandal	-6444
▁sashes	-6445
▁scared	-6446
▁shapes	-6447
▁shoots	-6448
▁siding	-6449
▁siting	-6450
▁skimpy	-6451
▁slices	-6452
▁slowly	-6453
▁sniffs	-6454
▁snowmo	-6455
▁speedo	-6456
▁spiked	-6457
▁spikes	-6458
▁stalks	-6459
▁steaks	-6460
▁steers	-6461
▁stools	-6462
▁straps	-6463
▁stride	-6464
▁sunhat	-6465
▁swampy	-6466
▁sweaty	-6467
▁tagged	-6468
▁taller	-6469
▁taught	-6470
▁thread	-6471
▁tosses	-6472
▁troops	-6473
▁tuning	-6474
▁unicef	-6475
▁unseen	-6476
▁viewer	-6477
▁waring	-6478
▁washed	-6479
▁wicker	-6480
▁yamaha	-6481
▁youths	-6482
cyclists	-6483
individu	-6484
marathon	-6485
shoppers	-6486
somebody	-6487
vertible	-6488
▁acrobat	-6489
▁adolesc	-6490
▁alcohol	-6491
▁apparel	-6492
▁archite	-6493
▁banging	-6494
▁begging	-6495
▁bookbag	-6496
▁burgers	-6497
▁calling	-6498
▁campers	-6499
▁cartoon	-6500
▁caution	-6501
▁circuit	-6502
▁cleaned	-6503
▁created	-6504
▁cubicle	-6505
▁cupcake	-6506
▁curious	-6507
▁descend	-6508
▁despite	-6509
▁dolphin	-6510
▁drivers	-6511
▁dropped	-6512
▁enthusi	-6513
▁exposed	-6514
▁fighter	-6515
▁fitness	-6516
▁flatbed	-6517
▁freshly	-6518
▁handleb	-6519
▁hauling	-6520
▁holiday	-6521
▁hooping	-6522
▁intense	-6523
▁keeping	-6524
▁ladders	-6525
▁lantern	-6526
▁letters	-6527
▁liberty	-6528
▁locomot	-6529
▁mailbox	-6530
▁mascara	-6531
▁mermaid	-6532
▁minivan	-6533
▁muzzles	-6534
▁octopus	-6535
▁packing	-6536
▁pancake	-6537
▁parasol	-6538
▁peeling	-6539
▁persons	-6540
▁pillars	-6541
▁pineapp	-6542
▁pirates	-6543
▁playpen	-6544
▁plowing	-6545
▁poverty	-6546
▁propane	-6547
▁rabbits	-6548
▁receive	-6549
▁reddish	-6550
▁ridding	-6551
▁roadway	-6552
▁rocking	-6553
▁seaweed	-6554
▁seniors	-6555
▁session	-6556
▁shields	-6557
▁slender	-6558
▁sloping	-6559
▁snowing	-6560
▁spandex	-6561
▁squares	-6562
▁statues	-6563
▁storage	-6564
▁strikes	-6565
▁studies	-6566
▁sucking	-6567
▁sunrise	-6568
▁tackles	-6569
▁tasting	-6570
▁terrace	-6571
▁tickets	-6572
▁tightly	-6573
▁trained	-6574
▁twister	-6575
▁typical	-6576
▁ukulele	-6577
▁unpaved	-6578
▁walkers	-6579
▁warning	-6580
▁welcome	-6581
▁western	-6582
▁wheeler	-6583
▁winning	-6584
emergency	-6585
fashioned	-6586
▁actively	-6587
▁adorable	-6588
▁aircraft	-6589
▁basement	-6590
▁bathrobe	-6591
▁boulders	-6592
▁bracelet	-6593
▁breaking	-6594
▁bringing	-6595
▁brochure	-6596
▁carpeted	-6597
▁cemetery	-6598
▁charcoal	-6599
▁chickens	-6600
▁coconuts	-6601
▁competes	-6602
▁controls	-6603
▁countert	-6604
▁crutches	-6605
▁cupcakes	-6606
▁directly	-6607
▁drainage	-6608
▁earmuffs	-6609
▁emerging	-6610
▁extended	-6611
▁fetching	-6612
▁greeting	-6613
▁guarding	-6614
▁helmeted	-6615
▁incoming	-6616
▁inflated	-6617
▁jewelery	-6618
▁kayakers	-6619
▁leafless	-6620
▁markings	-6621
▁mechanic	-6622
▁metallic	-6623
▁metropol	-6624
▁occupied	-6625
▁oklahoma	-6626
▁operated	-6627
▁overcoat	-6628
▁overhang	-6629
▁pastries	-6630
▁pictured	-6631
▁pitchers	-6632
▁plucking	-6633
▁pregnant	-6634
▁pressure	-6635
▁princess	-6636
▁question	-6637
▁readying	-6638
▁receives	-6639
▁removing	-6640
▁sausages	-6641
▁screwdri	-6642
▁sculptor	-6643
▁seashore	-6644
▁sheepdog	-6645
▁skeleton	-6646
▁solitary	-6647
▁sombrero	-6648
▁someones	-6649
▁spectate	-6650
▁stacking	-6651
▁surgeons	-6652
▁swimwear	-6653
▁tattered	-6654
▁thinking	-6655
▁triangle	-6656
▁trombone	-6657
▁twirling	-6658
▁waitress	-6659
▁weighing	-6660
▁wetsuits	-6661
basketball	-6662
bicyclists	-6663
▁accepting	-6664
▁appearing	-6665
▁balconies	-6666
▁bookstore	-6667
▁cafeteria	-6668
▁chinatown	-6669
▁chiseling	-6670
▁cityscape	-6671
▁coveralls	-6672
▁currently	-6673
▁daughters	-6674
▁defenders	-6675
▁defensive	-6676
▁delicious	-6677
▁dribbling	-6678
▁extremely	-6679
▁galloping	-6680
▁headbands	-6681
▁hopscotch	-6682
▁megaphone	-6683
▁messenger	-6684
▁motorboat	-6685
▁observers	-6686
▁occurring	-6687
▁oversized	-6688
▁paintball	-6689
▁paintings	-6690
▁piggyback	-6691
▁projected	-6692
▁promoting	-6693
▁returning	-6694
▁sculpting	-6695
▁selecting	-6696
▁smoothing	-6697
▁soldering	-6698
▁sponsored	-6699
▁sprinting	-6700
▁stairwell	-6701
▁starbucks	-6702
▁stockings	-6703
▁submerged	-6704
▁substance	-6705
▁technique	-6706
▁temporary	-6707
▁tightrope	-6708
▁unpacking	-6709
▁weathered	-6710
▁workbench	-6711
▁artificial	-6712
▁attraction	-6713
▁automobile	-6714
▁celebrates	-6715
▁collection	-6716
▁footbridge	-6717
▁foundation	-6718
▁frustrated	-6719
▁graduation	-6720
▁guitarists	-6721
▁impressive	-6722
▁instructor	-6723
▁kickboxing	-6724
▁kitchenaid	-6725
▁mechanical	-6726
▁organizing	-6727
▁overturned	-6728
▁paintbrush	-6729
▁pretending	-6730
▁purchasing	-6731
▁retrieving	-6732
▁scratching	-6733
▁stationary	-6734
▁strawberry	-6735
▁structures	-6736
▁sunbathers	-6737
▁technology	-6738
▁volkswagen	-6739
▁washington	-6740
▁waterskier	-6741
▁whispering	-6742
▁basketballs	-6743
▁comfortable	-6744
▁convertible	-6745
▁dilapidated	-6746
▁electronics	-6747
▁enforcement	-6748
▁entertainer	-6749
▁fashionable	-6750
▁fluorescent	-6751
▁headscarves	-6752
▁photography	-6753
▁preparation	-6754
▁streetlight	-6755
▁videotaping	-6756
photographers	-6757
▁constructing	-6758
▁dramatically	-6759
▁mountainside	-6760
▁participates	-6761
▁passionately	-6762
▁snowboarders	-6763
▁surroundings	-6764
▁unidentified	-6765
▁communicating	-6766
▁contemplating	-6767
▁demonstrating	-6768
▁photographers	-6769
▁professionals	-6770
▁rollerskaters	-6771
ae	-6772
av	-6773
ci	-6774
cs	-6775
my	-6776
pt	-6777
rd	-6778
sy	-6779
ux	-6780
yl	-6781
▁q	-6782
acy	-6783
aic	-6784
aki	-6785
aph	-6786
aut	-6787
bac	-6788
bie	-6789
big	-6790
bst	-6791
bui	-6792
bum	-6793
cav	-6794
che	-6795
cir	-6796
cod	-6797
cro	-6798
ete	-6799
ank	-6800
eye	-6801
few	-6802
fro	-6803
gin	-6804
gym	-6805
her	-6806
how	-6807
iod	-6808
ism	-6809
kay	-6810
lam	-6811
lan	-6812
law	-6813
lin	-6814
lls	-6815
lon	-6816
nal	-6817
nce	-6818
ndy	-6819
nia	-6820
ola	-6821
psy	-6822
rad	-6823
ray	-6824
rot	-6825
sea	-6826
sit	-6827
ssy	-6828
ste	-6829
sts	-6830
sub	-6831
tch	-6832
tho	-6833
ups	-6834
ury	-6835
wal	-6836
▁ds	-6837
▁dw	-6838
▁eg	-6839
▁fu	-6840
▁mr	-6841
acas	-6842
aced	-6843
aign	-6844
airs	-6845
anda	-6846
ason	-6847
ault	-6848
bags	-6849
bald	-6850
bans	-6851
buds	-6852
chet	-6853
chos	-6854
crou	-6855
ctic	-6856
dies	-6857
dyed	-6858
ecut	-6859
eper	-6860
eran	-6861
evil	-6862
ffle	-6863
gear	-6864
gent	-6865
golf	-6866
hake	-6867
hard	-6868
hats	-6869
home	-6870
hore	-6871
ifor	-6872
ilot	-6873
ipop	-6874
ippy	-6875
ived	-6876
iver	-6877
izer	-6878
jack	-6879
jump	-6880
lets	-6881
leys	-6882
llie	-6883
lope	-6884
mage	-6885
mboy	-6886
nets	-6887
nine	-6888
omas	-6889
omes	-6890
outs	-6891
pens	-6892
reds	-6893
rimp	-6894
rior	-6895
rows	-6896
scue	-6897
shes	-6898
shot	-6899
foam	-6900
olog	-6901
spea	-6902
stal	-6903
ties	-6904
tock	-6905
uish	-6906
uler	-6907
umes	-6908
urai	-6909
wall	-6910
wash	-6911
▁age	-6912
▁ala	-6913
▁alp	-6914
▁ank	-6915
▁ant	-6916
▁awe	-6917
▁awn	-6918
▁bmw	-6919
▁boa	-6920
▁bug	-6921
▁cad	-6922
▁cer	-6923
▁cyc	-6924
▁die	-6925
▁doc	-6926
▁dod	-6927
▁doo	-6928
▁dut	-6929
▁hol	-6930
▁ink	-6931
▁iro	-6932
▁joe	-6933
▁jug	-6934
▁ken	-6935
▁lei	-6936
▁mel	-6937
▁mob	-6938
▁nan	-6939
▁ner	-6940
▁now	-6941
▁oak	-6942
▁obl	-6943
▁paw	-6944
▁pel	-6945
▁pud	-6946
▁rig	-6947
▁rot	-6948
▁saf	-6949
▁swo	-6950
▁tul	-6951
▁tye	-6952
▁ups	-6953
▁wee	-6954
▁wie	-6955
▁wii	-6956
▁yet	-6957
achio	-6958
achsh	-6959
ailed	-6960
almon	-6961
ampoo	-6962
andel	-6963
bacco	-6964
books	-6965
bread	-6966
cards	-6967
ckled	-6968
climb	-6969
ctang	-6970
cured	-6971
dlers	-6972
doors	-6973
earch	-6974
eding	-6975
elder	-6976
enter	-6977
erees	-6978
etnam	-6979
geous	-6980
guing	-6981
hoops	-6982
hroom	-6983
iachi	-6984
iator	-6985
icles	-6986
ilies	-6987
imber	-6988
iskly	-6989
itude	-6990
laden	-6991
looks	-6992
maint	-6993
olate	-6994
orean	-6995
oring	-6996
ortun	-6997
paint	-6998
pitch	-6999
proof	-7000
quely	-7001
rical	-7002
ridor	-7003
rocks	-7004
skier	-7005
smith	-7006
tendo	-7007
uffel	-7008
unges	-7009
urely	-7010
uters	-7011
utist	-7012
verse	-7013
watch	-7014
▁ally	-7015
▁arab	-7016
▁batt	-7017
▁budd	-7018
▁bust	-7019
▁cert	-7020
▁chew	-7021
▁claw	-7022
▁coin	-7023
▁cors	-7024
▁cult	-7025
▁cust	-7026
▁dalm	-7027
▁dash	-7028
▁dent	-7029
▁diag	-7030
▁dojo	-7031
▁dorm	-7032
▁dren	-7033
▁ecst	-7034
▁emot	-7035
▁ends	-7036
▁exit	-7037
▁fier	-7038
▁fist	-7039
▁flot	-7040
▁ford	-7041
▁glit	-7042
▁glow	-7043
▁goof	-7044
▁gyro	-7045
▁hate	-7046
▁hawk	-7047
▁heat	-7048
▁hipp	-7049
▁holl	-7050
▁huts	-7051
▁inse	-7052
▁jars	-7053
▁junk	-7054
▁kara	-7055
▁lego	-7056
▁leis	-7057
▁limo	-7058
▁loaf	-7059
▁loll	-7060
▁loop	-7061
▁mate	-7062
▁mets	-7063
▁minn	-7064
▁mist	-7065
▁mock	-7066
▁moon	-7067
▁mout	-7068
▁neat	-7069
▁obsc	-7070
▁ohio	-7071
▁opin	-7072
▁pace	-7073
▁pear	-7074
▁peep	-7075
▁pens	-7076
▁perf	-7077
▁pets	-7078
▁plow	-7079
▁poke	-7080
▁prim	-7081
▁rapp	-7082
▁rins	-7083
▁ripp	-7084
▁rise	-7085
▁rods	-7086
▁rose	-7087
▁sari	-7088
▁save	-7089
▁scot	-7090
▁self	-7091
▁sexy	-7092
▁shit	-7093
▁silk	-7094
▁sips	-7095
▁situ	-7096
▁sket	-7097
▁smir	-7098
▁snar	-7099
▁snoo	-7100
▁sock	-7101
▁sour	-7102
▁spec	-7103
▁spid	-7104
▁spre	-7105
▁stap	-7106
▁styl	-7107
▁such	-7108
▁suds	-7109
▁swer	-7110
▁tear	-7111
▁tell	-7112
▁tend	-7113
▁toen	-7114
▁took	-7115
▁trap	-7116
▁trek	-7117
▁trio	-7118
▁tuba	-7119
▁twil	-7120
▁urin	-7121
▁veil	-7122
▁vers	-7123
▁vine	-7124
▁wade	-7125
acular	-7126
aeolog	-7127
alleng	-7128
aneous	-7129
anitor	-7130
antage	-7131
anting	-7132
blader	-7133
codile	-7134
corder	-7135
dozens	-7136
ertips	-7137
estyle	-7138
eteran	-7139
former	-7140
headed	-7141
hikers	-7142
iction	-7143
iments	-7144
irline	-7145
isters	-7146
keeper	-7147
kerchi	-7148
lation	-7149
locked	-7150
member	-7151
native	-7152
ournal	-7153
pleted	-7154
prints	-7155
ration	-7156
rofoam	-7157
rolled	-7158
ronaut	-7159
screen	-7160
semble	-7161
singer	-7162
skiers	-7163
sports	-7164
stairs	-7165
stress	-7166
twelve	-7167
uffles	-7168
uminum	-7169
ushion	-7170
verage	-7171
vestig	-7172
washer	-7173
▁align	-7174
▁alike	-7175
▁ambul	-7176
▁appla	-7177
▁appre	-7178
▁audio	-7179
▁beans	-7180
▁beats	-7181
▁blade	-7182
▁blown	-7183
▁bowed	-7184
▁bucks	-7185
▁bulls	-7186
▁cages	-7187
▁cakes	-7188
▁canes	-7189
▁capes	-7190
▁carol	-7191
▁chart	-7192
▁clams	-7193
▁clerk	-7194
▁colon	-7195
▁coney	-7196
▁cords	-7197
▁crocs	-7198
▁cycle	-7199
▁darts	-7200
▁ditch	-7201
▁dozen	-7202
▁dried	-7203
▁dries	-7204
▁drunk	-7205
▁dumps	-7206
▁dunks	-7207
▁enter	-7208
▁excav	-7209
▁expla	-7210
▁extra	-7211
▁fatig	-7212
▁feeds	-7213
▁ferry	-7214
▁figur	-7215
▁films	-7216
▁final	-7217
▁fists	-7218
▁fling	-7219
▁fully	-7220
▁geese	-7221
▁gifts	-7222
▁goers	-7223
▁guest	-7224
▁gypsy	-7225
▁hedge	-7226
▁hello	-7227
▁hitch	-7228
▁homes	-7229
▁honor	-7230
▁hoses	-7231
▁impro	-7232
▁index	-7233
▁indig	-7234
▁kinds	-7235
▁kitty	-7236
▁knits	-7237
▁ladle	-7238
▁latex	-7239
▁leafy	-7240
▁liter	-7241
▁llama	-7242
▁manic	-7243
▁maple	-7244
▁marks	-7245
▁meals	-7246
▁media	-7247
▁menus	-7248
▁might	-7249
▁mixed	-7250
▁mixes	-7251
▁monks	-7252
▁moose	-7253
▁moved	-7254
▁names	-7255
▁needs	-7256
▁ollie	-7257
▁pages	-7258
▁pairs	-7259
▁panda	-7260
▁panel	-7261
▁parka	-7262
▁pause	-7263
▁pharm	-7264
▁poker	-7265
▁quilt	-7266
▁rakes	-7267
▁rises	-7268
▁route	-7269
▁ruler	-7270
▁sands	-7271
▁sauna	-7272
▁sedan	-7273
▁shake	-7274
▁shelf	-7275
▁shine	-7276
▁sippy	-7277
▁sizes	-7278
▁sleds	-7279
▁snows	-7280
▁solar	-7281
▁spain	-7282
▁spits	-7283
▁steth	-7284
▁stock	-7285
▁stony	-7286
▁study	-7287
▁sucks	-7288
▁suite	-7289
▁sweet	-7290
▁tasks	-7291
▁tasty	-7292
▁taxis	-7293
▁tells	-7294
▁tends	-7295
▁threw	-7296
▁tiles	-7297
▁towed	-7298
▁trink	-7299
▁trips	-7300
▁trots	-7301
▁tutus	-7302
▁twent	-7303
▁twigs	-7304
▁union	-7305
▁views	-7306
▁vivid	-7307
▁welds	-7308
▁wheat	-7309
▁whose	-7310
▁wrong	-7311
▁years	-7312
achioed	-7313
chinese	-7314
ersault	-7315
formers	-7316
icapped	-7317
ifornia	-7318
itation	-7319
merized	-7320
ometric	-7321
ortment	-7322
pitcher	-7323
reached	-7324
sitting	-7325
student	-7326
undreds	-7327
wearing	-7328
workmen	-7329
xiously	-7330
younger	-7331
▁adding	-7332
▁aerial	-7333
▁amused	-7334
▁arabic	-7335
▁ashore	-7336
▁awaits	-7337
▁awning	-7338
▁barbie	-7339
▁bathed	-7340
▁batons	-7341
▁beagle	-7342
▁beauti	-7343
▁berlin	-7344
▁better	-7345
▁blonds	-7346
▁blurry	-7347
▁bouncy	-7348
▁braces	-7349
▁breast	-7350
▁briefs	-7351
▁bullet	-7352
▁bumper	-7353
▁burger	-7354
▁canned	-7355
▁cereal	-7356
▁cheers	-7357
▁cleats	-7358
▁contin	-7359
▁corral	-7360
▁cracks	-7361
▁crotch	-7362
▁crouch	-7363
▁cutoff	-7364
▁cutout	-7365
▁cycles	-7366
▁dachsh	-7367
▁dandel	-7368
▁darkly	-7369
▁dealer	-7370
▁decals	-7371
▁descri	-7372
▁digger	-7373
▁donuts	-7374
▁dreads	-7375
▁driven	-7376
▁duffel	-7377
▁dugout	-7378
▁enters	-7379
▁execut	-7380
▁facade	-7381
▁fences	-7382
▁fleece	-7383
▁fliers	-7384
▁france	-7385
▁geisha	-7386
▁golfer	-7387
▁hatted	-7388
▁highly	-7389
▁holing	-7390
▁incred	-7391
▁itself	-7392
▁jogger	-7393
▁kicker	-7394
▁kissed	-7395
▁knight	-7396
▁knives	-7397
▁korean	-7398
▁labrad	-7399
▁lakers	-7400
▁landsc	-7401
▁manual	-7402
▁marina	-7403
▁mexico	-7404
▁mosaic	-7405
▁mosque	-7406
▁needed	-7407
▁noodle	-7408
▁notice	-7409
▁offers	-7410
▁outcro	-7411
▁oxford	-7412
▁parlor	-7413
▁pastel	-7414
▁pastor	-7415
▁paving	-7416
▁paying	-7417
▁picker	-7418
▁pointy	-7419
▁poncho	-7420
▁poorly	-7421
▁progra	-7422
▁proper	-7423
▁pulley	-7424
▁ragged	-7425
▁refuge	-7426
▁region	-7427
▁reluct	-7428
▁remove	-7429
▁report	-7430
▁ripped	-7431
▁ritual	-7432
▁rowers	-7433
▁salmon	-7434
▁scoops	-7435
▁shaded	-7436
▁shrimp	-7437
▁signal	-7438
▁simult	-7439
▁sledge	-7440
▁sleigh	-7441
▁sparse	-7442
▁spider	-7443
▁spiral	-7444
▁squirt	-7445
▁strewn	-7446
▁strobe	-7447
▁talkie	-7448
▁tanned	-7449
▁themed	-7450
▁timber	-7451
▁treats	-7452
▁trough	-7453
▁tulips	-7454
▁twirls	-7455
▁unison	-7456
▁united	-7457
▁unload	-7458
▁uphill	-7459
▁vacant	-7460
▁waited	-7461
▁waking	-7462
▁walker	-7463
▁walkie	-7464
▁wallet	-7465
▁warmly	-7466
▁winded	-7467
▁zombie	-7468
athletes	-7469
boarders	-7470
colorful	-7471
daughter	-7472
etnamese	-7473
homeless	-7474
ortunity	-7475
overhead	-7476
soldiers	-7477
ximately	-7478
▁admires	-7479
▁agility	-7480
▁amazing	-7481
▁answers	-7482
▁applied	-7483
▁aquatic	-7484
▁arguing	-7485
▁arrival	-7486
▁attired	-7487
▁awnings	-7488
▁baggage	-7489
▁bagpipe	-7490
▁banquet	-7491
▁boating	-7492
▁bouncer	-7493
▁bounces	-7494
▁breasts	-7495
▁briskly	-7496
▁cabinet	-7497
▁captain	-7498
▁ceramic	-7499
▁cobbled	-7500
▁collide	-7501
▁content	-7502
▁crashed	-7503
▁crashes	-7504
▁crystal	-7505
▁culture	-7506
▁curling	-7507
▁curtain	-7508
▁cushion	-7509
▁defends	-7510
▁dentist	-7511
▁diverse	-7512
▁ducking	-7513
▁dustpan	-7514
▁earbuds	-7515
▁emotion	-7516
▁engages	-7517
▁extends	-7518
▁extreme	-7519
▁festive	-7520
▁flamboy	-7521
▁flights	-7522
▁flooded	-7523
▁focuses	-7524
▁forearm	-7525
▁forrest	-7526
▁fortune	-7527
▁freeway	-7528
▁gardens	-7529
▁garment	-7530
▁graphic	-7531
▁grounds	-7532
▁grouped	-7533
▁growing	-7534
▁hairnet	-7535
▁hammers	-7536
▁handful	-7537
▁hurdles	-7538
▁infants	-7539
▁ironing	-7540
▁italian	-7541
▁karaoke	-7542
▁layered	-7543
▁lottery	-7544
▁lounges	-7545
▁machete	-7546
▁manhole	-7547
▁monster	-7548
▁mopping	-7549
▁natural	-7550
▁noodles	-7551
▁nursing	-7552
▁overall	-7553
▁partner	-7554
▁patches	-7555
▁penguin	-7556
▁pierced	-7557
▁pitched	-7558
▁pitches	-7559
▁pockets	-7560
▁ponchos	-7561
▁ponders	-7562
▁popping	-7563
▁pouting	-7564
▁powered	-7565
▁presses	-7566
▁prevent	-7567
▁proudly	-7568
▁provide	-7569
▁pruning	-7570
▁pursued	-7571
▁racquet	-7572
▁railway	-7573
▁records	-7574
▁rectang	-7575
▁related	-7576
▁removed	-7577
▁removes	-7578
▁respect	-7579
▁rooster	-7580
▁samurai	-7581
▁sandpit	-7582
▁satchel	-7583
▁screams	-7584
▁secured	-7585
▁shading	-7586
▁shampoo	-7587
▁shelter	-7588
▁sipping	-7589
▁snowfla	-7590
▁solider	-7591
▁spiking	-7592
▁spilled	-7593
▁spreads	-7594
▁sprints	-7595
▁stained	-7596
▁statute	-7597
▁staying	-7598
▁sticker	-7599
▁streaks	-7600
▁streams	-7601
▁sunhats	-7602
▁takeout	-7603
▁technic	-7604
▁telling	-7605
▁testing	-7606
▁tobacco	-7607
▁toilets	-7608
▁trouble	-7609
▁turbans	-7610
▁tuxedos	-7611
▁vacuums	-7612
▁violins	-7613
▁warrior	-7614
▁yawning	-7615
▁zombies	-7616
fisherman	-7617
fishermen	-7618
gentleman	-7619
teenagers	-7620
▁aluminum	-7621
▁animated	-7622
▁arranged	-7623
▁assembly	-7624
▁attaches	-7625
▁backhand	-7626
▁battling	-7627
▁blacktop	-7628
▁bordered	-7629
▁campaign	-7630
▁canister	-7631
▁captured	-7632
▁captures	-7633
▁challeng	-7634
▁charging	-7635
▁contains	-7636
▁corridor	-7637
▁creative	-7638
▁darkness	-7639
▁descends	-7640
▁desolate	-7641
▁directed	-7642
▁director	-7643
▁drenched	-7644
▁dwelling	-7645
▁elevator	-7646
▁enclosed	-7647
▁equipped	-7648
▁explorer	-7649
▁explores	-7650
▁exposing	-7651
▁families	-7652
▁featured	-7653
▁forklift	-7654
▁friendly	-7655
▁frosting	-7656
▁gorgeous	-7657
▁graduate	-7658
▁gripping	-7659
▁handmade	-7660
▁headgear	-7661
▁holidays	-7662
▁horizont	-7663
▁huddling	-7664
▁informal	-7665
▁innertub	-7666
▁interior	-7667
▁intimate	-7668
▁investig	-7669
▁lakeside	-7670
▁landmark	-7671
▁lassoing	-7672
▁launches	-7673
▁leotards	-7674
▁littered	-7675
▁lollipop	-7676
▁maneuver	-7677
▁mariachi	-7678
▁mirrored	-7679
▁mushroom	-7680
▁nibbling	-7681
▁nintendo	-7682
▁numbered	-7683
▁observed	-7684
▁onlooker	-7685
▁ornament	-7686
▁overpass	-7687
▁packages	-7688
▁parasail	-7689
▁peaceful	-7690
▁pleasant	-7691
▁plugging	-7692
▁potatoes	-7693
▁pressing	-7694
▁pretends	-7695
▁pumpkins	-7696
▁recently	-7697
▁recliner	-7698
▁referees	-7699
▁released	-7700
▁research	-7701
▁scottish	-7702
▁services	-7703
▁shadowed	-7704
▁smirking	-7705
▁snowbank	-7706
▁snowshoe	-7707
▁	-7708
a	-7709
e	-7710
n	-7711
i	-7712
o	-7713
t	-7714
r	-7715
s	-7716
l	-7717
h	-7718
g	-7719
d	-7720
w	-7721
c	-7722
m	-7723
p	-7724
u	-7725
.	-7726
b	-7727
f	-7728
k	-7729
y	-7730
v	-7731
,	-7732
j	-7733
x	-7734
-	-7735
;	-7736
&	-7737
q	-7738
z	-7739
